{
  "version": "1.0",
  "truncation": null,
  "padding": null,
  "added_tokens": [
    {
      "id": 0,
      "content": "[PAD]",
      "single_word": false,
      "lstrip": false,
      "rstrip": false,
      "normalized": false,
      "special": true
    },
    {
      "id": 1,
      "content": "[UNK]",
      "single_word": false,
      "lstrip": false,
      "rstrip": false,
      "normalized": false,
      "special": true
    },
    {
      "id": 2,
      "content": "[BOS]",
      "single_word": false,
      "lstrip": false,
      "rstrip": false,
      "normalized": false,
      "special": true
    },
    {
      "id": 3,
      "content": "[EOS]",
      "single_word": false,
      "lstrip": false,
      "rstrip": false,
      "normalized": false,
      "special": true
    }
  ],
  "normalizer": null,
  "pre_tokenizer": {
    "type": "Whitespace"
  },
  "post_processor": null,
  "decoder": null,
  "model": {
    "type": "BPE",
    "dropout": null,
    "unk_token": "[UNK]",
    "continuing_subword_prefix": null,
    "end_of_word_suffix": null,
    "fuse_unk": false,
    "byte_fallback": false,
    "ignore_merges": false,
    "vocab": {
      "[PAD]": 0,
      "[UNK]": 1,
      "[BOS]": 2,
      "[EOS]": 3,
      "!": 4,
      "#": 5,
      "$": 6,
      "%": 7,
      "&": 8,
      "(": 9,
      ")": 10,
      "+": 11,
      ",": 12,
      "-": 13,
      ".": 14,
      "/": 15,
      "0": 16,
      "1": 17,
      "2": 18,
      "3": 19,
      "4": 20,
      "5": 21,
      "6": 22,
      "7": 23,
      "8": 24,
      "9": 25,
      ":": 26,
      "=": 27,
      "?": 28,
      "@": 29,
      "A": 30,
      "B": 31,
      "C": 32,
      "D": 33,
      "E": 34,
      "F": 35,
      "G": 36,
      "H": 37,
      "I": 38,
      "J": 39,
      "K": 40,
      "L": 41,
      "M": 42,
      "N": 43,
      "O": 44,
      "P": 45,
      "Q": 46,
      "R": 47,
      "S": 48,
      "T": 49,
      "U": 50,
      "V": 51,
      "W": 52,
      "X": 53,
      "Y": 54,
      "[": 55,
      "\\": 56,
      "]": 57,
      "_": 58,
      "a": 59,
      "b": 60,
      "c": 61,
      "d": 62,
      "e": 63,
      "f": 64,
      "g": 65,
      "h": 66,
      "i": 67,
      "j": 68,
      "k": 69,
      "l": 70,
      "m": 71,
      "n": 72,
      "o": 73,
      "p": 74,
      "q": 75,
      "r": 76,
      "s": 77,
      "t": 78,
      "u": 79,
      "v": 80,
      "w": 81,
      "x": 82,
      "y": 83,
      "z": 84,
      "|": 85,
      "~": 86,
      "·": 87,
      "–": 88,
      "‘": 89,
      "’": 90,
      "“": 91,
      "”": 92,
      "•": 93,
      "▸": 94,
      "✨": 95,
      "⸻": 96,
      "가": 97,
      "각": 98,
      "간": 99,
      "감": 100,
      "갑": 101,
      "강": 102,
      "갖": 103,
      "같": 104,
      "개": 105,
      "객": 106,
      "갱": 107,
      "거": 108,
      "건": 109,
      "걸": 110,
      "검": 111,
      "겁": 112,
      "것": 113,
      "게": 114,
      "격": 115,
      "견": 116,
      "결": 117,
      "겸": 118,
      "경": 119,
      "계": 120,
      "고": 121,
      "곱": 122,
      "곳": 123,
      "공": 124,
      "과": 125,
      "관": 126,
      "괄": 127,
      "광": 128,
      "교": 129,
      "구": 130,
      "국": 131,
      "굴": 132,
      "굽": 133,
      "권": 134,
      "귀": 135,
      "규": 136,
      "그": 137,
      "극": 138,
      "근": 139,
      "글": 140,
      "금": 141,
      "급": 142,
      "긍": 143,
      "기": 144,
      "긴": 145,
      "길": 146,
      "깁": 147,
      "까": 148,
      "깔": 149,
      "깨": 150,
      "꺼": 151,
      "께": 152,
      "꿇": 153,
      "끊": 154,
      "끔": 155,
      "끗": 156,
      "끼": 157,
      "낄": 158,
      "낍": 159,
      "나": 160,
      "난": 161,
      "남": 162,
      "납": 163,
      "내": 164,
      "냄": 165,
      "너": 166,
      "널": 167,
      "넘": 168,
      "네": 169,
      "넨": 170,
      "넷": 171,
      "녁": 172,
      "년": 173,
      "녕": 174,
      "노": 175,
      "논": 176,
      "높": 177,
      "눈": 178,
      "눗": 179,
      "뉴": 180,
      "느": 181,
      "는": 182,
      "능": 183,
      "니": 184,
      "닌": 185,
      "님": 186,
      "닝": 187,
      "다": 188,
      "닥": 189,
      "닦": 190,
      "단": 191,
      "달": 192,
      "담": 193,
      "답": 194,
      "당": 195,
      "닿": 196,
      "대": 197,
      "더": 198,
      "덕": 199,
      "던": 200,
      "덧": 201,
      "데": 202,
      "델": 203,
      "도": 204,
      "독": 205,
      "돈": 206,
      "돕": 207,
      "동": 208,
      "되": 209,
      "된": 210,
      "될": 211,
      "됩": 212,
      "두": 213,
      "둔": 214,
      "뒤": 215,
      "드": 216,
      "득": 217,
      "든": 218,
      "들": 219,
      "등": 220,
      "디": 221,
      "딩": 222,
      "따": 223,
      "때": 224,
      "떤": 225,
      "또": 226,
      "뛰": 227,
      "뜻": 228,
      "라": 229,
      "락": 230,
      "람": 231,
      "랍": 232,
      "랑": 233,
      "래": 234,
      "랙": 235,
      "랜": 236,
      "램": 237,
      "랫": 238,
      "랭": 239,
      "략": 240,
      "량": 241,
      "러": 242,
      "럭": 243,
      "런": 244,
      "럴": 245,
      "럽": 246,
      "렇": 247,
      "레": 248,
      "렉": 249,
      "렛": 250,
      "려": 251,
      "력": 252,
      "련": 253,
      "령": 254,
      "로": 255,
      "록": 256,
      "론": 257,
      "롬": 258,
      "롭": 259,
      "뢰": 260,
      "료": 261,
      "루": 262,
      "룩": 263,
      "룸": 264,
      "룹": 265,
      "류": 266,
      "률": 267,
      "륭": 268,
      "르": 269,
      "른": 270,
      "를": 271,
      "름": 272,
      "릎": 273,
      "리": 274,
      "린": 275,
      "릴": 276,
      "립": 277,
      "릿": 278,
      "링": 279,
      "마": 280,
      "만": 281,
      "말": 282,
      "망": 283,
      "맞": 284,
      "매": 285,
      "맵": 286,
      "머": 287,
      "먼": 288,
      "멀": 289,
      "메": 290,
      "멤": 291,
      "며": 292,
      "면": 293,
      "명": 294,
      "모": 295,
      "목": 296,
      "몸": 297,
      "무": 298,
      "묶": 299,
      "문": 300,
      "물": 301,
      "뮤": 302,
      "뮬": 303,
      "므": 304,
      "미": 305,
      "민": 306,
      "밀": 307,
      "밍": 308,
      "및": 309,
      "바": 310,
      "박": 311,
      "반": 312,
      "받": 313,
      "발": 314,
      "밝": 315,
      "방": 316,
      "배": 317,
      "백": 318,
      "뱅": 319,
      "버": 320,
      "벌": 321,
      "범": 322,
      "법": 323,
      "베": 324,
      "벤": 325,
      "벨": 326,
      "벽": 327,
      "변": 328,
      "별": 329,
      "병": 330,
      "보": 331,
      "복": 332,
      "본": 333,
      "봇": 334,
      "부": 335,
      "분": 336,
      "불": 337,
      "붕": 338,
      "뷰": 339,
      "브": 340,
      "블": 341,
      "비": 342,
      "빈": 343,
      "빌": 344,
      "빗": 345,
      "빠": 346,
      "뺄": 347,
      "뻗": 348,
      "뿐": 349,
      "사": 350,
      "산": 351,
      "상": 352,
      "새": 353,
      "색": 354,
      "샌": 355,
      "생": 356,
      "샹": 357,
      "서": 358,
      "석": 359,
      "선": 360,
      "설": 361,
      "섬": 362,
      "섰": 363,
      "성": 364,
      "세": 365,
      "센": 366,
      "셀": 367,
      "셈": 368,
      "셉": 369,
      "셔": 370,
      "션": 371,
      "셜": 372,
      "셨": 373,
      "소": 374,
      "속": 375,
      "손": 376,
      "솔": 377,
      "송": 378,
      "쇼": 379,
      "수": 380,
      "숙": 381,
      "순": 382,
      "술": 383,
      "쉬": 384,
      "쉽": 385,
      "슈": 386,
      "스": 387,
      "슬": 388,
      "습": 389,
      "승": 390,
      "시": 391,
      "식": 392,
      "신": 393,
      "실": 394,
      "심": 395,
      "십": 396,
      "싱": 397,
      "쌓": 398,
      "써": 399,
      "쓰": 400,
      "쓸": 401,
      "씨": 402,
      "아": 403,
      "악": 404,
      "안": 405,
      "앉": 406,
      "않": 407,
      "알": 408,
      "압": 409,
      "애": 410,
      "액": 411,
      "앨": 412,
      "야": 413,
      "약": 414,
      "얏": 415,
      "양": 416,
      "어": 417,
      "억": 418,
      "언": 419,
      "얻": 420,
      "얼": 421,
      "엄": 422,
      "업": 423,
      "없": 424,
      "었": 425,
      "에": 426,
      "엑": 427,
      "엔": 428,
      "엘": 429,
      "여": 430,
      "역": 431,
      "연": 432,
      "열": 433,
      "염": 434,
      "영": 435,
      "예": 436,
      "오": 437,
      "온": 438,
      "올": 439,
      "와": 440,
      "완": 441,
      "외": 442,
      "요": 443,
      "욕": 444,
      "용": 445,
      "우": 446,
      "운": 447,
      "울": 448,
      "움": 449,
      "웃": 450,
      "워": 451,
      "원": 452,
      "월": 453,
      "웨": 454,
      "웰": 455,
      "웹": 456,
      "위": 457,
      "유": 458,
      "육": 459,
      "율": 460,
      "융": 461,
      "으": 462,
      "은": 463,
      "을": 464,
      "음": 465,
      "응": 466,
      "의": 467,
      "이": 468,
      "익": 469,
      "인": 470,
      "일": 471,
      "읽": 472,
      "임": 473,
      "입": 474,
      "있": 475,
      "자": 476,
      "작": 477,
      "잘": 478,
      "잡": 479,
      "장": 480,
      "재": 481,
      "저": 482,
      "적": 483,
      "전": 484,
      "절": 485,
      "점": 486,
      "접": 487,
      "정": 488,
      "제": 489,
      "젝": 490,
      "젠": 491,
      "조": 492,
      "족": 493,
      "존": 494,
      "졸": 495,
      "종": 496,
      "좋": 497,
      "좌": 498,
      "주": 499,
      "준": 500,
      "줄": 501,
      "중": 502,
      "줘": 503,
      "즈": 504,
      "즉": 505,
      "즐": 506,
      "즘": 507,
      "증": 508,
      "지": 509,
      "직": 510,
      "진": 511,
      "질": 512,
      "집": 513,
      "징": 514,
      "짧": 515,
      "쪼": 516,
      "차": 517,
      "착": 518,
      "찰": 519,
      "참": 520,
      "창": 521,
      "찾": 522,
      "채": 523,
      "책": 524,
      "처": 525,
      "천": 526,
      "철": 527,
      "첫": 528,
      "청": 529,
      "체": 530,
      "쳐": 531,
      "초": 532,
      "촉": 533,
      "총": 534,
      "최": 535,
      "추": 536,
      "축": 537,
      "춘": 538,
      "출": 539,
      "춤": 540,
      "충": 541,
      "춰": 542,
      "취": 543,
      "츠": 544,
      "측": 545,
      "층": 546,
      "치": 547,
      "칙": 548,
      "친": 549,
      "침": 550,
      "칭": 551,
      "카": 552,
      "칵": 553,
      "캐": 554,
      "캠": 555,
      "캡": 556,
      "커": 557,
      "컨": 558,
      "컴": 559,
      "컵": 560,
      "케": 561,
      "켓": 562,
      "코": 563,
      "콘": 564,
      "콜": 565,
      "쿠": 566,
      "쿼": 567,
      "크": 568,
      "클": 569,
      "큼": 570,
      "키": 571,
      "킨": 572,
      "킬": 573,
      "킵": 574,
      "킹": 575,
      "타": 576,
      "탁": 577,
      "탄": 578,
      "탈": 579,
      "탐": 580,
      "탕": 581,
      "태": 582,
      "택": 583,
      "터": 584,
      "턴": 585,
      "털": 586,
      "테": 587,
      "텍": 588,
      "텐": 589,
      "텔": 590,
      "템": 591,
      "토": 592,
      "톡": 593,
      "통": 594,
      "퇴": 595,
      "투": 596,
      "튜": 597,
      "트": 598,
      "특": 599,
      "튼": 600,
      "틀": 601,
      "티": 602,
      "틱": 603,
      "틴": 604,
      "팀": 605,
      "팅": 606,
      "파": 607,
      "판": 608,
      "패": 609,
      "팬": 610,
      "퍼": 611,
      "펌": 612,
      "페": 613,
      "펫": 614,
      "편": 615,
      "평": 616,
      "폐": 617,
      "포": 618,
      "폴": 619,
      "폼": 620,
      "표": 621,
      "푸": 622,
      "풀": 623,
      "품": 624,
      "풍": 625,
      "퓨": 626,
      "프": 627,
      "플": 628,
      "피": 629,
      "핀": 630,
      "필": 631,
      "핑": 632,
      "하": 633,
      "학": 634,
      "한": 635,
      "할": 636,
      "함": 637,
      "합": 638,
      "항": 639,
      "해": 640,
      "핵": 641,
      "행": 642,
      "향": 643,
      "허": 644,
      "헌": 645,
      "험": 646,
      "헬": 647,
      "혁": 648,
      "현": 649,
      "협": 650,
      "형": 651,
      "혜": 652,
      "호": 653,
      "혼": 654,
      "홀": 655,
      "홍": 656,
      "화": 657,
      "확": 658,
      "환": 659,
      "활": 660,
      "황": 661,
      "회": 662,
      "획": 663,
      "효": 664,
      "후": 665,
      "훌": 666,
      "휘": 667,
      "휴": 668,
      "흐": 669,
      "희": 670,
      "히": 671,
      "힐": 672,
      "🇬": 673,
      "🇸": 674,
      "🌟": 675,
      "🎯": 676,
      "🎹": 677,
      "👟": 678,
      "💗": 679,
      "📚": 680,
      "in": 681,
      "an": 682,
      "re": 683,
      "er": 684,
      "02": 685,
      "니다": 686,
      "정보": 687,
      "ing": 688,
      "00": 689,
      "en": 690,
      "==": 691,
      "확인": 692,
      "st": 693,
      "WE": 694,
      "ti": 695,
      "자격": 696,
      "요건": 697,
      "202": 698,
      "[/": 699,
      "on": 700,
      "2026": 701,
      "ad": 702,
      "감일": 703,
      "마감일": 704,
      "ap": 705,
      "ent": 706,
      "연락": 707,
      "업무": 708,
      "연락처": 709,
      "and": 710,
      "ore": 711,
      "정보를": 712,
      "관리": 713,
      "al": 714,
      "ingap": 715,
      "ingapore": 716,
      "합니다": 717,
      "om": 718,
      "습니다": 719,
      "SG": 720,
      "ag": 721,
      "SGD": 722,
      ".\\": 723,
      "or": 724,
      "경력": 725,
      "준비": 726,
      "28": 727,
      "ES": 728,
      "stad": 729,
      "andstad": 730,
      "NS": 731,
      "com": 732,
      "EST": 733,
      "ON": 734,
      "ob": 735,
      "ANS": 736,
      "DO": 737,
      "ION": 738,
      "QU": 739,
      "력서": 740,
      "이력서": 741,
      "===": 742,
      "WER": 743,
      "ESTION": 744,
      "ANSWER": 745,
      "DOC": 746,
      "QUESTION": 747,
      "회사": 748,
      "Singapore": 749,
      "•\\": 750,
      "ic": 751,
      "ww": 752,
      "기술": 753,
      "포지": 754,
      "000": 755,
      "포지션": 756,
      "고용": 757,
      "위치": 758,
      "지원": 759,
      "형태": 760,
      "고용형태": 761,
      "el": 762,
      "에서": 763,
      "job": 764,
      "tt": 765,
      "하는": 766,
      "anag": 767,
      "고객": 768,
      "경험": 769,
      "필요": 770,
      "사항": 771,
      "..": 772,
      "ps": 773,
      "급여": 774,
      "WEB": 775,
      "es": 776,
      "이상": 777,
      "//": 778,
      "://": 779,
      "htt": 780,
      "https": 781,
      "스트": 782,
      "tion": 783,
      "있습니다": 784,
      "Randstad": 785,
      "ment": 786,
      "하고": 787,
      "요약": 788,
      "il": 789,
      "ec": 790,
      "이트": 791,
      "ar": 792,
      "체크": 793,
      "Manag": 794,
      "리스트": 795,
      "et": 796,
      "주의": 797,
      "체크리스트": 798,
      "주의사항": 799,
      "ation": 800,
      "있으": 801,
      "채용": 802,
      "구인": 803,
      "필수": 804,
      "작성": 805,
      "주요": 806,
      "설명": 807,
      "문서": 808,
      "해야": 809,
      "per": 810,
      "사이트": 811,
      "최신": 812,
      "Cl": 813,
      "me": 814,
      "변경": 815,
      "sg": 816,
      "충족": 817,
      "므로": 818,
      "제출": 819,
      "):": 820,
      "CV": 821,
      "ul": 822,
      "것이": 823,
      "공공": 824,
      "공식": 825,
      "담고": 826,
      "상세": 827,
      "웹사이트": 828,
      "좋습니다": 829,
      "해줘": 830,
      "정보는": 831,
      "확인하는": 832,
      "준비물": 833,
      "지원서": 834,
      "있으므로": 835,
      "문서는": 836,
      "변경될": 837,
      "공공정보": 838,
      "웹사이트에서": 839,
      "ce": 840,
      "it": 841,
      "정규": 842,
      "www": 843,
      "비스": 844,
      "정규직": 845,
      "내용": 846,
      "서비스": 847,
      "여부": 848,
      "ail": 849,
      "ro": 850,
      "또는": 851,
      "업종": 852,
      "회사명": 853,
      "학력": 854,
      "time": 855,
      "are": 856,
      "ull": 857,
      "te": 858,
      "Full": 859,
      "정리": 860,
      "23": 861,
      "ient": 862,
      "Client": 863,
      "AI": 864,
      "ac": 865,
      "hi": 866,
      "jobs": 867,
      "능력": 868,
      "age": 869,
      "으로": 870,
      "...": 871,
      "시스": 872,
      "정리해줘": 873,
      "randstad": 874,
      "03": 875,
      "시스템": 876,
      "TE": 877,
      "ou": 878,
      "ha": 879,
      "Manager": 880,
      "가포": 881,
      "싱가포": 882,
      "TEL": 883,
      "싱가포르": 884,
      "운영": 885,
      "Ex": 886,
      "EM": 887,
      "ate": 888,
      "th": 889,
      "근무": 890,
      "프로": 891,
      "IT": 892,
      "care": 893,
      "관련": 894,
      "_s": 895,
      "ist": 896,
      "AIL": 897,
      "EMAIL": 898,
      "ev": 899,
      "ement": 900,
      "전략": 901,
      "ations": 902,
      "마케": 903,
      "마케팅": 904,
      "In": 905,
      "Mar": 906,
      "호텔": 907,
      "ank": 908,
      "유지": 909,
      "career": 910,
      "5년": 911,
      "ket": 912,
      "as": 913,
      "icha": 914,
      "ichael": 915,
      "Management": 916,
      "46": 917,
      "ct": 918,
      "le": 919,
      "ri": 920,
      "적인": 921,
      "eg": 922,
      "제공": 923,
      "keting": 924,
      "11": 925,
      "hip": 926,
      ")\\": 927,
      "객실": 928,
      "수행": 929,
      "ine": 930,
      "em": 931,
      "gm": 932,
      "_singapore": 933,
      "gmail": 934,
      "oo": 935,
      "개발": 936,
      "ess": 937,
      "ence": 938,
      "Bank": 939,
      "ion": 940,
      "ire": 941,
      "우대": 942,
      "우스": 943,
      "Pro": 944,
      "_46": 945,
      "ead": 946,
      "있는": 947,
      "하며": 948,
      "하우스": 949,
      "핵심": 950,
      "_463": 951,
      "10": 952,
      "ure": 953,
      "분석": 954,
      "이터": 955,
      "지식": 956,
      "us": 957,
      "최소": 958,
      "업무를": 959,
      "가능": 960,
      "ice": 961,
      "ech": 962,
      "Marketing": 963,
      "ience": 964,
      "대한": 965,
      "데이터": 966,
      "하여": 967,
      "etail": 968,
      "perience": 969,
      "Experience": 970,
      "careers": 971,
      "하우스키": 972,
      "ve": 973,
      "워크": 974,
      "Bac": 975,
      "manag": 976,
      "관계": 977,
      "Experienced": 978,
      "En": 979,
      "pl": 980,
      "04": 981,
      "gine": 982,
      "hel": 983,
      "모든": 984,
      "분야": 985,
      "전문": 986,
      "irect": 987,
      "하우스키핑": 988,
      "Bachel": 989,
      "gineer": 990,
      "Bachelor": 991,
      "ed": 992,
      "ior": 993,
      "oti": 994,
      "리드": 995,
      "적으로": 996,
      "하게": 997,
      "enior": 998,
      "86": 999,
      "Michael": 1000,
      "Page": 1001,
      "ch": 1002,
      "yst": 1003,
      "기준": 1004,
      "irector": 1005,
      "16": 1006,
      "AP": 1007,
      "ab": 1008,
      "am": 1009,
      "ay": 1010,
      "ff": 1011,
      "is": 1012,
      "에게": 1013,
      "중심": 1014,
      "evel": 1015,
      "erv": 1016,
      "ecu": 1017,
      "manager": 1018,
      "lo": 1019,
      "영업": 1020,
      "iness": 1021,
      "Lead": 1022,
      "ut": 1023,
      "안전": 1024,
      "이션": 1025,
      "준수": 1026,
      "_singapore_463": 1027,
      "Engineer": 1028,
      "리더": 1029,
      "스크": 1030,
      "함께": 1031,
      "usiness": 1032,
      "12": 1033,
      "detail": 1034,
      "ft": 1035,
      "gy": 1036,
      "금융": 1037,
      "랜드": 1038,
      "수립": 1039,
      "역할": 1040,
      "our": 1041,
      "0486": 1042,
      "nal": 1043,
      "tr": 1044,
      "감독": 1045,
      "음료": 1046,
      "ales": 1047,
      "ical": 1048,
      "ional": 1049,
      "Reg": 1050,
      "Tech": 1051,
      "교육": 1052,
      "매장": 1053,
      "소통": 1054,
      "학위": 1055,
      "ant": 1056,
      "ref": 1057,
      "요약해줘": 1058,
      "ood": 1059,
      "Sales": 1060,
      "mar": 1061,
      "기업": 1062,
      "보유": 1063,
      "브랜드": 1064,
      "이해": 1065,
      "처리": 1066,
      "--": 1067,
      "500": 1068,
      "mon": 1069,
      "보안": 1070,
      "지역": 1071,
      "직무": 1072,
      "하기": 1073,
      "month": 1074,
      "sp": 1075,
      "담당": 1076,
      "영어": 1077,
      "프라": 1078,
      "tive": 1079,
      "리더십": 1080,
      "),": 1081,
      "고의": 1082,
      "act": 1083,
      "Banking": 1084,
      "Business": 1085,
      "HR": 1086,
      "Senior": 1087,
      "ci": 1088,
      "ral": 1089,
      "ss": 1090,
      "공급": 1091,
      "산업": 1092,
      "포함": 1093,
      "플로": 1094,
      "perations": 1095,
      "ity": 1096,
      "13": 1097,
      "80": 1098,
      "Director": 1099,
      "Serv": 1100,
      "jn": 1101,
      "michael": 1102,
      "page": 1103,
      "ork": 1104,
      "프로젝": 1105,
      "10년": 1106,
      "Techn": 1107,
      "michaelpage": 1108,
      "Con": 1109,
      "Neg": 1110,
      "av": 1111,
      "cs": 1112,
      "ru": 1113,
      "ur": 1114,
      "다면": 1115,
      "따라": 1116,
      "보고": 1117,
      "식음료": 1118,
      "원활": 1119,
      "절차": 1120,
      "청소": 1121,
      "테일": 1122,
      "협력": 1123,
      "환경": 1124,
      "서비스를": 1125,
      "Proc": 1126,
      "프로젝트": 1127,
      "Negoti": 1128,
      "01": 1129,
      "eal": 1130,
      "리테일": 1131,
      "뮤니": 1132,
      "뱅킹": 1133,
      "재고": 1134,
      "커뮤니": 1135,
      "학사": 1136,
      "항공": 1137,
      "riv": 1138,
      "ystem": 1139,
      "048623": 1140,
      "ealth": 1141,
      "AC": 1142,
      "Anal": 1143,
      "Com": 1144,
      "Re": 1145,
      "Te": 1146,
      "ast": 1147,
      "ig": 1148,
      "qu": 1149,
      "대졸": 1150,
      "장비": 1151,
      "통한": 1152,
      "프레": 1153,
      "entral": 1154,
      "지원합니다": 1155,
      "ationship": 1156,
      "able": 1157,
      "Regional": 1158,
      "14": 1159,
      "49": 1160,
      "Ass": 1161,
      "Rel": 1162,
      "공고의": 1163,
      "업체": 1164,
      "위해": 1165,
      "있다면": 1166,
      "지니": 1167,
      "품질": 1168,
      "연락처가": 1169,
      "urement": 1170,
      "Sp": 1171,
      "fr": 1172,
      "up": 1173,
      "work": 1174,
      "니스": 1175,
      "무원": 1176,
      "비즈": 1177,
      "설계": 1178,
      "세스": 1179,
      "승무원": 1180,
      "의사": 1181,
      "청결": 1182,
      "ink": 1183,
      "ern": 1184,
      "ect": 1185,
      "프로세스": 1186,
      "APAC": 1187,
      "비즈니스": 1188,
      "Br": 1189,
      "ping": 1190,
      "por": 1191,
      "갖추": 1192,
      "계약": 1193,
      "글로": 1194,
      "대응": 1195,
      "도록": 1196,
      "상태": 1197,
      "어야": 1198,
      "엔지니": 1199,
      "협상": 1200,
      "2025": 1201,
      "연락처와": 1202,
      "주의사항을": 1203,
      "evelo": 1204,
      "ecutive": 1205,
      "Leader": 1206,
      "Negotiable": 1207,
      "글로벌": 1208,
      "엔지니어": 1209,
      "OS": 1210,
      "Off": 1211,
      "Operations": 1212,
      "SE": 1213,
      "ai": 1214,
      "ace": 1215,
      "osp": 1216,
      "목표": 1217,
      "방문": 1218,
      "보험": 1219,
      "부서": 1220,
      "책임": 1221,
      "케이션": 1222,
      "태도": 1223,
      "자격증": 1224,
      "istant": 1225,
      "유지합니다": 1226,
      "제공합니다": 1227,
      "의사소통": 1228,
      "54": 1229,
      "65": 1230,
      "68": 1231,
      "7년": 1232,
      "CI": 1233,
      "System": 1234,
      "my": 1235,
      "olo": 1236,
      "pment": 1237,
      "um": 1238,
      "기타": 1239,
      "시장": 1240,
      "업계": 1241,
      "요구": 1242,
      "의료": 1243,
      "정확": 1244,
      "제조": 1245,
      "직원": 1246,
      "참여": 1247,
      "프트": 1248,
      "항상": 1249,
      "고객에게": 1250,
      "체크리스트와": 1251,
      "수행합니다": 1252,
      "중심으로": 1253,
      "ource": 1254,
      "갖추고": 1255,
      "22": 1256,
      ":\\": 1257,
      "Ad": 1258,
      "Food": 1259,
      "Ship": 1260,
      "ial": 1261,
      "min": 1262,
      "si": 1263,
      "ship": 1264,
      "un": 1265,
      "경영": 1266,
      "기록": 1267,
      "신속": 1268,
      "실행": 1269,
      "인프라": 1270,
      "정책": 1271,
      "제품": 1272,
      "졸업": 1273,
      "팀과": 1274,
      "커뮤니케이션": 1275,
      "Team": 1276,
      "inked": 1277,
      "ology": 1278,
      "69": 1279,
      "Develo": 1280,
      "Jav": 1281,
      "Str": 1282,
      "cm": 1283,
      "oft": 1284,
      "se": 1285,
      "교대": 1286,
      "기기": 1287,
      "네트": 1288,
      "디플로": 1289,
      "뛰어": 1290,
      "루션": 1291,
      "리스크": 1292,
      "바이": 1293,
      "복잡": 1294,
      "성과": 1295,
      "소프트": 1296,
      "솔루션": 1297,
      "시에": 1298,
      "요청": 1299,
      "응대": 1300,
      "있어야": 1301,
      "자산": 1302,
      "조정": 1303,
      "reg": 1304,
      "erage": 1305,
      "end": 1306,
      "ication": 1307,
      "고객을": 1308,
      "ecial": 1309,
      "oud": 1310,
      "ply": 1311,
      "공급업체": 1312,
      "포함한": 1313,
      "환경에서": 1314,
      "rivate": 1315,
      "SEA": 1316,
      "Java": 1317,
      "Strate": 1318,
      "네트워크": 1319,
      "디플로마": 1320,
      "복잡한": 1321,
      "ecialist": 1322,
      "Central": 1323,
      "Linked": 1324,
      "Med": 1325,
      "Pl": 1326,
      "fact": 1327,
      "강력": 1328,
      "다양": 1329,
      "로서": 1330,
      "시간": 1331,
      "어지": 1332,
      "은행": 1333,
      "전반": 1334,
      "효율": 1335,
      "ance": 1336,
      "관리합니다": 1337,
      "orpor": 1338,
      "Service": 1339,
      "Technology": 1340,
      "협력하여": 1341,
      "Comm": 1342,
      "Relationship": 1343,
      "LinkedIn": 1344,
      "강력한": 1345,
      "다양한": 1346,
      "orporate": 1347,
      "20": 1348,
      "3년": 1349,
      "58": 1350,
      "Ag": 1351,
      "Ap": 1352,
      "Cre": 1353,
      "Job": 1354,
      "Res": 1355,
      "bank": 1356,
      "day": 1357,
      "ler": 1358,
      "wd": 1359,
      "긍정": 1360,
      "라이": 1361,
      "론트": 1362,
      "베이": 1363,
      "숙박": 1364,
      "역량": 1365,
      "외식": 1366,
      "지정": 1367,
      "판매": 1368,
      "평가": 1369,
      "프론트": 1370,
      "해결": 1371,
      "ont": 1372,
      "andler": 1373,
      "고객의": 1374,
      "사항을": 1375,
      "있으며": 1376,
      "Executive": 1377,
      "프로그": 1378,
      "utm": 1379,
      "역할을": 1380,
      "marketing": 1381,
      "절차를": 1382,
      "Procurement": 1383,
      "workday": 1384,
      "myworkday": 1385,
      "Admin": 1386,
      "myworkdayjobs": 1387,
      "1년": 1388,
      "Corporate": 1389,
      "ER": 1390,
      "SQ": 1391,
      "ho": 1392,
      "ke": 1393,
      "tel": 1394,
      "ust": 1395,
      "다음": 1396,
      "레이": 1397,
      "린넨": 1398,
      "멤버": 1399,
      "문의": 1400,
      "문제": 1401,
      "사고": 1402,
      "성을": 1403,
      "쉽게": 1404,
      "시아": 1405,
      "오피": 1406,
      "우수": 1407,
      "일정": 1408,
      "제안": 1409,
      "조율": 1410,
      "주문": 1411,
      "컨시": 1412,
      "표준": 1413,
      "ang": 1414,
      "ann": 1415,
      "ties": 1416,
      "icer": 1417,
      "이상의": 1418,
      "ital": 1419,
      "hift": 1420,
      "능력을": 1421,
      "everage": 1422,
      "emical": 1423,
      "이해하기": 1424,
      "Assistant": 1425,
      "엔지니어링": 1426,
      "방문객": 1427,
      "의료기기": 1428,
      "뛰어난": 1429,
      "오피스": 1430,
      "2B": 1431,
      "78": 1432,
      "79": 1433,
      "8년": 1434,
      "Al": 1435,
      "B2B": 1436,
      "CM": 1437,
      "aa": 1438,
      "af": 1439,
      "director": 1440,
      "ex": 1441,
      "lob": 1442,
      "pro": 1443,
      "ple": 1444,
      "singapore": 1445,
      "senior": 1446,
      "ta": 1447,
      "tech": 1448,
      "vent": 1449,
      "계획": 1450,
      "국제": 1451,
      "규정": 1452,
      "라우": 1453,
      "사용": 1454,
      "슈퍼": 1455,
      "안내": 1456,
      "웨어": 1457,
      "위한": 1458,
      "점검": 1459,
      "총괄": 1460,
      "최적": 1461,
      "클라우": 1462,
      "erosp": 1463,
      "ong": 1464,
      "Cloud": 1465,
      "itect": 1466,
      "cture": 1467,
      "수행할": 1468,
      "가능한": 1469,
      "chitect": 1470,
      "준수합니다": 1471,
      "ructure": 1472,
      "Analyst": 1473,
      "astructure": 1474,
      "Specialist": 1475,
      "frastructure": 1476,
      "제조업": 1477,
      "바이저": 1478,
      "소프트웨어": 1479,
      "Commun": 1480,
      "프로그램": 1481,
      "SQL": 1482,
      "슈퍼바이저": 1483,
      "클라우드": 1484,
      "erospace": 1485,
      "Ar": 1486,
      "Ch": 1487,
      "Gas": 1488,
      "Hou": 1489,
      "Oil": 1490,
      "Sup": 1491,
      "bern": 1492,
      "ef": 1493,
      "id": 1494,
      "ty": 1495,
      "ware": 1496,
      "개선": 1497,
      "구현": 1498,
      "던트": 1499,
      "데스크": 1500,
      "수준": 1501,
      "스토": 1502,
      "식품": 1503,
      "재무": 1504,
      "컴퓨": 1505,
      "팀원": 1506,
      "stment": 1507,
      "oboti": 1508,
      "rol": 1509,
      "Marine": 1510,
      "vestment": 1511,
      "ourc": 1512,
      "원활한": 1513,
      "Leadership": 1514,
      "Strategy": 1515,
      "긍정적인": 1516,
      "ERP": 1517,
      "컨시어지": 1518,
      "House": 1519,
      "컴퓨터": 1520,
      "obotics": 1521,
      "17": 1522,
      "102": 1523,
      "15년": 1524,
      "26": 1525,
      "30": 1526,
      "40": 1527,
      "71": 1528,
      "89": 1529,
      "Fin": 1530,
      "LC": 1531,
      "La": 1532,
      "Private": 1533,
      "Retail": 1534,
      "Soft": 1535,
      "US": 1536,
      "bu": 1537,
      "if": 1538,
      "ms": 1539,
      "n호텔": 1540,
      "serv": 1541,
      "we": 1542,
      "같은": 1543,
      "공학": 1544,
      "구매": 1545,
      "기대": 1546,
      "높은": 1547,
      "능통": 1548,
      "등학": 1549,
      "디지": 1550,
      "런트": 1551,
      "로비": 1552,
      "리오": 1553,
      "리조": 1554,
      "리티": 1555,
      "마인": 1556,
      "보수": 1557,
      "보충": 1558,
      "비상": 1559,
      "선박": 1560,
      "소시에": 1561,
      "어소시에": 1562,
      "열정": 1563,
      "이전": 1564,
      "적이": 1565,
      "적절": 1566,
      "정돈": 1567,
      "조달": 1568,
      "친절": 1569,
      "트폴": 1570,
      "포트폴": 1571,
      "프런트": 1572,
      "ands": 1573,
      "ications": 1574,
      "job_": 1575,
      "ttend": 1576,
      "ments": 1577,
      "ard": 1578,
      "med": 1579,
      "유지보수": 1580,
      "career_": 1581,
      "irements": 1582,
      "가능자": 1583,
      "데이터베이": 1584,
      "기준에": 1585,
      "ruit": 1586,
      "보고합니다": 1587,
      "Requ": 1588,
      "aims": 1589,
      "Development": 1590,
      "다음과": 1591,
      "lobal": 1592,
      "최적화": 1593,
      "Architect": 1594,
      "Software": 1595,
      "등학교": 1596,
      "디지털": 1597,
      "리조트": 1598,
      "마인드": 1599,
      "어소시에이트": 1600,
      "포트폴리오": 1601,
      "ttendant": 1602,
      "데이터베이스": 1603,
      "Requirements": 1604,
      "07": 1605,
      "25": 1606,
      "27": 1607,
      "Ac": 1608,
      "Beverage": 1609,
      "Level": 1610,
      "Man": 1611,
      "Pr": 1612,
      "Robotics": 1613,
      "Secu": 1614,
      "Wealth": 1615,
      "cle": 1616,
      "du": 1617,
      "dit": 1618,
      "les": 1619,
      "rity": 1620,
      "t호텔": 1621,
      "ufact": 1622,
      "개인": 1623,
      "것을": 1624,
      "고등학교": 1625,
      "기본": 1626,
      "니터": 1627,
      "됩니다": 1628,
      "들과": 1629,
      "로드": 1630,
      "마이": 1631,
      "모니터": 1632,
      "벤트": 1633,
      "변화": 1634,
      "분을": 1635,
      "상업": 1636,
      "상품": 1637,
      "성장": 1638,
      "신규": 1639,
      "어텐": 1640,
      "에이전": 1641,
      "이벤트": 1642,
      "일치": 1643,
      "적극": 1644,
      "전달": 1645,
      "주도": 1646,
      "테이션": 1647,
      "통합": 1648,
      "파트": 1649,
      "ort": 1650,
      "ili": 1651,
      "oot": 1652,
      "loc": 1653,
      "tract": 1654,
      "uring": 1655,
      "Process": 1656,
      "Analy": 1657,
      "Officer": 1658,
      "CIS": 1659,
      "Shipping": 1660,
      "Plann": 1661,
      "Crew": 1662,
      "kee": 1663,
      "Housekee": 1664,
      "ruitment": 1665,
      "Manufact": 1666,
      "모니터링": 1667,
      "어텐던트": 1668,
      "에이전트": 1669,
      "Manufacturing": 1670,
      "180": 1671,
      "29": 1672,
      "31": 1673,
      "45": 1674,
      "52": 1675,
      "55": 1676,
      "63": 1677,
      "Aerospace": 1678,
      "Attendant": 1679,
      "GB": 1680,
      "Head": 1681,
      "JR": 1682,
      "Lt": 1683,
      "OB": 1684,
      "Pte": 1685,
      "PLC": 1686,
      "RM": 1687,
      "Ri": 1688,
      "SCM": 1689,
      "We": 1690,
      "_JR": 1691,
      "ah": 1692,
      "aff": 1693,
      "bo": 1694,
      "for": 1695,
      "gr": 1696,
      "ow": 1697,
      "pan": 1698,
      "source": 1699,
      "ter": 1700,
      "t고객": 1701,
      "t하우스키핑": 1702,
      "tern": 1703,
      "ue": 1704,
      "ver": 1705,
      "vis": 1706,
      "거래": 1707,
      "구축": 1708,
      "기는": 1709,
      "나이": 1710,
      "대해": 1711,
      "레벨": 1712,
      "서버": 1713,
      "스피": 1714,
      "아키": 1715,
      "아시아": 1716,
      "여러": 1717,
      "여행": 1718,
      "예산": 1719,
      "예측": 1720,
      "우주": 1721,
      "위생": 1722,
      "일상": 1723,
      "임워크": 1724,
      "작업": 1725,
      "접수": 1726,
      "조직": 1727,
      "즐기는": 1728,
      "지속": 1729,
      "찾고": 1730,
      "출장": 1731,
      "캠페": 1732,
      "콘텐": 1733,
      "탈리티": 1734,
      "텍처": 1735,
      "통해": 1736,
      "파악": 1737,
      "호스피": 1738,
      "효과": 1739,
      "확인합니다": 1740,
      "ices": 1741,
      "지원자": 1742,
      "ational": 1743,
      "hief": 1744,
      "운영을": 1745,
      "_source": 1746,
      "Infrastructure": 1747,
      "ashi": 1748,
      "lead": 1749,
      "117": 1750,
      "1111": 1751,
      "112025": 1752,
      "분야의": 1753,
      "utom": 1754,
      "_singapore_46354": 1755,
      "048616": 1756,
      "---": 1757,
      "프라이": 1758,
      "Technical": 1759,
      "원활하게": 1760,
      "항공우주": 1761,
      "프레임워크": 1762,
      "Office": 1763,
      "regional": 1764,
      "banking": 1765,
      "utm_source": 1766,
      "aaS": 1767,
      "수준의": 1768,
      "Ltd": 1769,
      "River": 1770,
      "affles": 1771,
      "pany": 1772,
      "ternal": 1773,
      "ternational": 1774,
      "나이키": 1775,
      "아키텍처": 1776,
      "캠페인": 1777,
      "콘텐츠": 1778,
      "호스피탈리티": 1779,
      "AT": 1780,
      "CG": 1781,
      "CP": 1782,
      "Cust": 1783,
      "Dev": 1784,
      "FM": 1785,
      "Fr": 1786,
      "Health": 1787,
      "Pre": 1788,
      "Ris": 1789,
      "ROS": 1790,
      "Sc": 1791,
      "Shift": 1792,
      "TM": 1793,
      "ject": 1794,
      "king": 1795,
      "n모든": 1796,
      "of": 1797,
      "ual": 1798,
      "가격": 1799,
      "가치": 1800,
      "거나": 1801,
      "공간": 1802,
      "공휴": 1803,
      "구역": 1804,
      "기회": 1805,
      "기획": 1806,
      "는지": 1807,
      "능숙": 1808,
      "대인": 1809,
      "도체": 1810,
      "랫폼": 1811,
      "련도": 1812,
      "반도체": 1813,
      "배송": 1814,
      "법적": 1815,
      "불일치": 1816,
      "비품": 1817,
      "상황": 1818,
      "센터": 1819,
      "수요": 1820,
      "숙련도": 1821,
      "스택": 1822,
      "신용": 1823,
      "완료": 1824,
      "외부": 1825,
      "위험": 1826,
      "인사": 1827,
      "자동": 1828,
      "조사": 1829,
      "집중": 1830,
      "테이": 1831,
      "테스트": 1832,
      "플랫폼": 1833,
      "확보": 1834,
      "anci": 1835,
      "tics": 1836,
      "omer": 1837,
      "ors": 1838,
      "경험을": 1839,
      "서비스업": 1840,
      "근무할": 1841,
      "전략적": 1842,
      "Investment": 1843,
      "asd": 1844,
      "전문성": 1845,
      "Contract": 1846,
      "Brand": 1847,
      "상태를": 1848,
      "태도를": 1849,
      "요구사항": 1850,
      "경영진": 1851,
      "신속하고": 1852,
      "우수한": 1853,
      "Chemical": 1854,
      "Supply": 1855,
      "duct": 1856,
      "로드맵": 1857,
      "Housekeeping": 1858,
      "Customer": 1859,
      "FMCG": 1860,
      "Risk": 1861,
      "공휴일": 1862,
      "ancial": 1863,
      "-%": 1864,
      "/?": 1865,
      "08": 1866,
      "19": 1867,
      "100": 1868,
      "200": 1869,
      "240": 1870,
      "449": 1871,
      "59": 1872,
      "579": 1873,
      "64": 1874,
      "7c": 1875,
      "800": 1876,
      "91": 1877,
      "Ab": 1878,
      "Autom": 1879,
      "Care": 1880,
      "CRM": 1881,
      "Chief": 1882,
      "Da": 1883,
      "Des": 1884,
      "MES": 1885,
      "Py": 1886,
      "Rec": 1887,
      "Raffles": 1888,
      "SAP": 1889,
      "business": 1890,
      "bili": 1891,
      "cl": 1892,
      "central": 1893,
      "curement": 1894,
      "food": 1895,
      "go": 1896,
      "global": 1897,
      "kw": 1898,
      "kit": 1899,
      "level": 1900,
      "lationship": 1901,
      "mation": 1902,
      "ni": 1903,
      "n고객": 1904,
      "n팀원": 1905,
      "oci": 1906,
      "operations": 1907,
      "pon": 1908,
      "su": 1909,
      "yit": 1910,
      "격근무": 1911,
      "고급": 1912,
      "과목": 1913,
      "규제": 1914,
      "급자": 1915,
      "나요": 1916,
      "남아시아": 1917,
      "동남아시아": 1918,
      "되도록": 1919,
      "레스토": 1920,
      "면접": 1921,
      "보이": 1922,
      "보장": 1923,
      "사무": 1924,
      "사이": 1925,
      "세탁": 1926,
      "소지": 1927,
      "시설": 1928,
      "압박": 1929,
      "어떤": 1930,
      "언스": 1931,
      "없음": 1932,
      "에미": 1933,
      "연간": 1934,
      "원가": 1935,
      "원격근무": 1936,
      "이동": 1937,
      "전화": 1938,
      "젠테이션": 1939,
      "철저": 1940,
      "청구": 1941,
      "코드": 1942,
      "크로": 1943,
      "투자": 1944,
      "풀스택": 1945,
      "해상": 1946,
      "해석": 1947,
      "해운": 1948,
      "향상": 1949,
      "현금": 1950,
      "활용": 1951,
      "anch": 1952,
      "relationship": 1953,
      "ers": 1954,
      "er_463": 1955,
      "erah": 1956,
      "en_": 1957,
      "enti": 1958,
      "ale": 1959,
      "ory": 1960,
      "company": 1961,
      "Claims": 1962,
      "team": 1963,
      "시스템을": 1964,
      "out": 1965,
      "External": 1966,
      "thon": 1967,
      "istri": 1968,
      "Infor": 1969,
      "ass": 1970,
      "중심적인": 1971,
      "Region": 1972,
      "130": 1973,
      "Cont": 1974,
      "보고서": 1975,
      "river_463": 1976,
      "igital": 1977,
      "quis": 1978,
      "프레젠테이션": 1979,
      "688": 1980,
      "sia": 1981,
      "sibili": 1982,
      "region": 1983,
      "Medtech": 1984,
      "Apple": 1985,
      "Respon": 1986,
      "라이언스": 1987,
      "지정된": 1988,
      "procurement": 1989,
      "Communications": 1990,
      "ourcing": 1991,
      "bution": 1992,
      "service": 1993,
      "wei": 1994,
      "친절하고": 1995,
      "Security": 1996,
      "기본적인": 1997,
      "파트너": 1998,
      "Planning": 1999,
      "프라이빗": 2000,
      "Front": 2001,
      "대인관계": 2002,
      "About": 2003,
      "Python": 2004,
      "kwan": 2005,
      "ociate": 2006,
      "yitwei": 2007,
      "레스토랑": 2008,
      "istribution": 2009,
      "Information": 2010,
      "sibilities": 2011,
      "Responsibilities": 2012,
      "18": 2013,
      "2년": 2014,
      "AS": 2015,
      "BI": 2016,
      "CD": 2017,
      "Di": 2018,
      "Ku": 2019,
      "Lo": 2020,
      "Pay": 2021,
      "POS": 2022,
      "Qual": 2023,
      "Sing": 2024,
      "au": 2025,
      "gist": 2026,
      "ier": 2027,
      "ition": 2028,
      "lig": 2029,
      "ns": 2030,
      "n하우스키핑": 2031,
      "ph": 2032,
      "ring": 2033,
      "sur": 2034,
      "t객실": 2035,
      "t모든": 2036,
      "가지": 2037,
      "검토": 2038,
      "게스트": 2039,
      "공유": 2040,
      "과정": 2041,
      "니폼": 2042,
      "대상": 2043,
      "되었": 2044,
      "레이트": 2045,
      "리지": 2046,
      "맞춤": 2047,
      "매니": 2048,
      "무결": 2049,
      "무관": 2050,
      "문화": 2051,
      "벤더": 2052,
      "보딩": 2053,
      "사람": 2054,
      "상급자": 2055,
      "소개": 2056,
      "수거": 2057,
      "숙지": 2058,
      "스쿠": 2059,
      "시하는": 2060,
      "언어": 2061,
      "예정": 2062,
      "온보딩": 2063,
      "욕실": 2064,
      "위워크": 2065,
      "유통": 2066,
      "유니폼": 2067,
      "이에": 2068,
      "일반": 2069,
      "입니다": 2070,
      "전체": 2071,
      "제거": 2072,
      "주말": 2073,
      "즉시": 2074,
      "지닌": 2075,
      "창구": 2076,
      "초대졸": 2077,
      "컴플": 2078,
      "케어": 2079,
      "해외": 2080,
      "행정": 2081,
      "현지": 2082,
      "화학": 2083,
      "환영": 2084,
      "회의": 2085,
      "요건을": 2086,
      "관리자": 2087,
      "oma": 2088,
      "ord": 2089,
      "경력이": 2090,
      "지원을": 2091,
      "에서도": 2092,
      "사항에": 2093,
      "ill": 2094,
      "etes": 2095,
      "perty": 2096,
      "ite": 2097,
      "hain": 2098,
      "istr": 2099,
      "유지하고": 2100,
      "제공할": 2101,
      "emand": 2102,
      "Progr": 2103,
      "Project": 2104,
      "Product": 2105,
      "관계자": 2106,
      "plication": 2107,
      "ploma": 2108,
      "분야에서": 2109,
      "Engineering": 2110,
      "보유자": 2111,
      "보유하고": 2112,
      "처리합니다": 2113,
      "커뮤니티": 2114,
      "Relations": 2115,
      "Spring": 2116,
      "ospital": 2117,
      "정책과": 2118,
      "Medical": 2119,
      "효율적으로": 2120,
      "Application": 2121,
      "Administr": 2122,
      "tellig": 2123,
      "ventory": 2124,
      "bernetes": 2125,
      "roll": 2126,
      "Financial": 2127,
      "적이고": 2128,
      "Analytics": 2129,
      "여러분": 2130,
      "자동화": 2131,
      "공휴일을": 2132,
      "n팀원들": 2133,
      "에미레이트": 2134,
      "quisition": 2135,
      "Diploma": 2136,
      "Kubernetes": 2137,
      "surance": 2138,
      "가지고": 2139,
      "되었는지": 2140,
      "맞춤형": 2141,
      "컴플라이언스": 2142,
      "Program": 2143,
      "ospitality": 2144,
      "telligence": 2145,
      "66": 2146,
      "626": 2147,
      "880": 2148,
      "93": 2149,
      "?)\\": 2150,
      "AV": 2151,
      "Az": 2152,
      "Are": 2153,
      "Bu": 2154,
      "Bar": 2155,
      "Boot": 2156,
      "CH": 2157,
      "Cab": 2158,
      "Digital": 2159,
      "Distribution": 2160,
      "Hi": 2161,
      "Handler": 2162,
      "IN": 2163,
      "JOB": 2164,
      "Kaf": 2165,
      "Mic": 2166,
      "MAS": 2167,
      "OP": 2168,
      "Port": 2169,
      "RCH": 2170,
      "SA": 2171,
      "Sh": 2172,
      "St": 2173,
      "SNS": 2174,
      "Wha": 2175,
      "_R": 2176,
      "_SEA": 2177,
      "_id": 2178,
      "_med": 2179,
      "_loc": 2180,
      "_central": 2181,
      "br": 2182,
      "cc": 2183,
      "cy": 2184,
      "cou": 2185,
      "cruitment": 2186,
      "fare": 2187,
      "ge": 2188,
      "gro": 2189,
      "hy": 2190,
      "head": 2191,
      "ium": 2192,
      "ka": 2193,
      "lu": 2194,
      "list": 2195,
      "mier": 2196,
      "nt": 2197,
      "n아": 2198,
      "n학력": 2199,
      "n관련": 2200,
      "n객실": 2201,
      "n매장": 2202,
      "n영어": 2203,
      "nav": 2204,
      "off": 2205,
      "ption": 2206,
      "private": 2207,
      "q_id": 2208,
      "rate": 2209,
      "rcm": 2210,
      "system": 2211,
      "soft": 2212,
      "shift": 2213,
      "t멤버": 2214,
      "yal": 2215,
      "감사": 2216,
      "그룹": 2217,
      "그릴": 2218,
      "극동": 2219,
      "깨끗": 2220,
      "납원": 2221,
      "내부": 2222,
      "달성": 2223,
      "더라이": 2224,
      "동료": 2225,
      "되는": 2226,
      "되며": 2227,
      "디어": 2228,
      "따뜻": 2229,
      "럭셔": 2230,
      "르게": 2231,
      "리나": 2232,
      "리닝": 2233,
      "리미": 2234,
      "마리나": 2235,
      "말레이": 2236,
      "맞춘": 2237,
      "매출": 2238,
      "먼지": 2239,
      "먼트": 2240,
      "모바": 2241,
      "모집": 2242,
      "물품": 2243,
      "바탕": 2244,
      "발생": 2245,
      "배경": 2246,
      "배정": 2247,
      "보자": 2248,
      "빠르게": 2249,
      "샹그릴": 2250,
      "선호": 2251,
      "성실": 2252,
      "세부": 2253,
      "세요": 2254,
      "세일": 2255,
      "소싱": 2256,
      "식을": 2257,
      "언더라이": 2258,
      "우리": 2259,
      "우선": 2260,
      "월한": 2261,
      "이런": 2262,
      "인트": 2263,
      "자문": 2264,
      "정부": 2265,
      "정해": 2266,
      "주기": 2267,
      "중요": 2268,
      "중시하는": 2269,
      "지를": 2270,
      "지점": 2271,
      "창고": 2272,
      "추진": 2273,
      "출납원": 2274,
      "카통": 2275,
      "탁월한": 2276,
      "포인트": 2277,
      "프리미": 2278,
      "합격": 2279,
      "항만": 2280,
      "확장": 2281,
      "환자": 2282,
      "회계": 2283,
      "후보자": 2284,
      "recruitment": 2285,
      "req_id": 2286,
      "erge": 2287,
      "engineer": 2288,
      "ency": 2289,
      "strate": 2290,
      "ada": 2291,
      "apac": 2292,
      "apple": 2293,
      "alent": 2294,
      "필요한": 2295,
      "arment": 2296,
      "pervis": 2297,
      "rosoft": 2298,
      "the": 2299,
      "_site": 2300,
      "International": 2301,
      "career10": 2302,
      "ash": 2303,
      "riLa": 2304,
      "110": 2305,
      "ooking": 2306,
      "essfact": 2307,
      "워크플로": 2308,
      "management": 2309,
      "관계를": 2310,
      "전문적으로": 2311,
      "chemical": 2312,
      "기준을": 2313,
      "169": 2314,
      "스크리닝": 2315,
      "12년": 2316,
      "details": 2317,
      "처리하고": 2318,
      "담당하게": 2319,
      "cierge": 2320,
      "135": 2321,
      "Server": 2322,
      "Concierge": 2323,
      "012026": 2324,
      "ign": 2325,
      "144": 2326,
      "498": 2327,
      "Associate": 2328,
      "청결하고": 2329,
      "Branch": 2330,
      "계약직": 2331,
      "책임감": 2332,
      "태도로": 2333,
      "umni": 2334,
      "정확히": 2335,
      "전반에": 2336,
      "Agent": 2337,
      "wd102": 2338,
      "utm_med": 2339,
      "제안서": 2340,
      "angriLa": 2341,
      "Alumni": 2342,
      "executive": 2343,
      "점검합니다": 2344,
      "Communication": 2345,
      "bernate": 2346,
      "열정을": 2347,
      "적절한": 2348,
      "job_list": 2349,
      "job_req_id": 2350,
      "career_ns": 2351,
      "career_job_req_id": 2352,
      "450": 2353,
      "board": 2354,
      "효과적으로": 2355,
      "leader": 2356,
      "_singapore_4635414": 2357,
      "CPaaS": 2358,
      "Healthcare": 2359,
      "Data": 2360,
      "succ": 2361,
      "보장합니다": 2362,
      "사이버": 2363,
      "소지자": 2364,
      "철저히": 2365,
      "en_GB": 2366,
      "assistant": 2367,
      "Qualif": 2368,
      "무결성": 2369,
      "Administration": 2370,
      "AVP": 2371,
      "Azure": 2372,
      "BarLevel": 2373,
      "Cabin": 2374,
      "Hibernate": 2375,
      "JOB_SEA": 2376,
      "Kafka": 2377,
      "Microsoft": 2378,
      "ShangriLa": 2379,
      "What": 2380,
      "_locale": 2381,
      "count": 2382,
      "fareast": 2383,
      "group": 2384,
      "navBarLevel": 2385,
      "rcm_site": 2386,
      "yalty": 2387,
      "럭셔리": 2388,
      "모바일": 2389,
      "바탕으로": 2390,
      "샹그릴라": 2391,
      "성실하고": 2392,
      "세일즈": 2393,
      "언더라이팅": 2394,
      "정해진": 2395,
      "pervisor": 2396,
      "essfactors": 2397,
      "워크플로우": 2398,
      "utm_medium": 2399,
      "job_listing": 2400,
      "successfactors": 2401,
      "JOB_SEARCH": 2402,
      "rcm_site_locale": 2403,
      "60": 2404,
      "AW": 2405,
      "BOS": 2406,
      "CE": 2407,
      "Chain": 2408,
      "Demand": 2409,
      "Event": 2410,
      "Fashi": 2411,
      "Gr": 2412,
      "GCE": 2413,
      "Hum": 2414,
      "Hospitality": 2415,
      "IP": 2416,
      "JBOS": 2417,
      "KP": 2418,
      "On": 2419,
      "SP": 2420,
      "Saf": 2421,
      "Sourcing": 2422,
      "Vend": 2423,
      "VIP": 2424,
      "Work": 2425,
      "cor": 2426,
      "cel": 2427,
      "card": 2428,
      "eing": 2429,
      "ear": 2430,
      "eus": 2431,
      "fe": 2432,
      "ir": 2433,
      "itime": 2434,
      "n서비스": 2435,
      "n로비": 2436,
      "n지원자": 2437,
      "pre": 2438,
      "ry": 2439,
      "sis": 2440,
      "t필요": 2441,
      "t최소": 2442,
      "t다양한": 2443,
      "t린넨": 2444,
      "t긍정적인": 2445,
      "t친절하고": 2446,
      "t주말": 2447,
      "ub": 2448,
      "uate": 2449,
      "xur": 2450,
      "ycle": 2451,
      "가진": 2452,
      "강한": 2453,
      "갖춘": 2454,
      "건물": 2455,
      "검증": 2456,
      "공동": 2457,
      "과학": 2458,
      "국방": 2459,
      "기관": 2460,
      "기능": 2461,
      "기를": 2462,
      "까지": 2463,
      "너화": 2464,
      "노동": 2465,
      "니티": 2466,
      "다른": 2467,
      "다이": 2468,
      "다마이": 2469,
      "도착": 2470,
      "독립": 2471,
      "들어": 2472,
      "또한": 2473,
      "레이션": 2474,
      "력을": 2475,
      "로봇": 2476,
      "리전": 2477,
      "메일": 2478,
      "메니티": 2479,
      "물류": 2480,
      "물을": 2481,
      "발굴": 2482,
      "보건": 2483,
      "보조": 2484,
      "보호": 2485,
      "서류": 2486,
      "성격": 2487,
      "스파": 2488,
      "스프레": 2489,
      "신장": 2490,
      "실무": 2491,
      "실천": 2492,
      "어메니티": 2493,
      "엑셀": 2494,
      "오브": 2495,
      "의류": 2496,
      "이메일": 2497,
      "익스프레": 2498,
      "일원": 2499,
      "일일": 2500,
      "입주": 2501,
      "자재": 2502,
      "진행": 2503,
      "추가": 2504,
      "추적": 2505,
      "충분": 2506,
      "컨테이": 2507,
      "코칭": 2508,
      "크루": 2509,
      "투숙": 2510,
      "팀의": 2511,
      "팀워크": 2512,
      "하도록": 2513,
      "해당": 2514,
      "현장": 2515,
      "협의": 2516,
      "호주": 2517,
      "insurance": 2518,
      "ercard": 2519,
      "stre": 2520,
      "onal": 2521,
      "aduate": 2522,
      "apply": 2523,
      "entre": 2524,
      "ority": 2525,
      "orph": 2526,
      "icing": 2527,
      "기술적": 2528,
      "elist": 2529,
      "이상이": 2530,
      "ile": 2531,
      "ecycle": 2532,
      "ety": 2533,
      "있으면": 2534,
      "능력이": 2535,
      "Excel": 2536,
      "Inventory": 2537,
      "Intelligence": 2538,
      "Maritime": 2539,
      "rities": 2540,
      "riority": 2541,
      "Property": 2542,
      "전문적인": 2543,
      "중심의": 2544,
      "안전하게": 2545,
      "매장에서": 2546,
      "보유한": 2547,
      "이해관계자": 2548,
      "플로어": 2549,
      "Services": 2550,
      "절차에": 2551,
      "Negotiation": 2552,
      "Rep": 2553,
      "Reinsurance": 2554,
      "astercard": 2555,
      "fra": 2556,
      "port": 2557,
      "보험사": 2558,
      "부서에": 2559,
      "정확하게": 2560,
      "정확성을": 2561,
      "요청에": 2562,
      "환경에서도": 2563,
      "전반의": 2564,
      "효율적인": 2565,
      "Agile": 2566,
      "Credit": 2567,
      "Resourc": 2568,
      "레이어": 2569,
      "문의에": 2570,
      "angelist": 2571,
      "방문객을": 2572,
      "안내합니다": 2573,
      "Finance": 2574,
      "ifecycle": 2575,
      "적이며": 2576,
      "적절히": 2577,
      "마인드를": 2578,
      "Acquisition": 2579,
      "Prin": 2580,
      "Pricing": 2581,
      "변화하는": 2582,
      "적극적인": 2583,
      "location": 2584,
      "CISO": 2585,
      "ower": 2586,
      "uest": 2587,
      "지속적": 2588,
      "ashier": 2589,
      "Device": 2590,
      "Scoo": 2591,
      "TMT": 2592,
      "Automation": 2593,
      "Recruitment": 2594,
      "Payroll": 2595,
      "스쿠티": 2596,
      "Store": 2597,
      "깨끗하고": 2598,
      "동료들과": 2599,
      "말레이시아": 2600,
      "우리는": 2601,
      "중요한": 2602,
      "AWS": 2603,
      "Fashion": 2604,
      "Graduate": 2605,
      "Human": 2606,
      "JBOSS": 2607,
      "KPI": 2608,
      "Safety": 2609,
      "Vendor": 2610,
      "xury": 2611,
      "노동법": 2612,
      "익스프레스": 2613,
      "컨테이너화": 2614,
      "orpheus": 2615,
      "Resources": 2616,
      "++": 2617,
      "09": 2618,
      "1579": 2619,
      "38": 2620,
      "300": 2621,
      "48": 2622,
      "412": 2623,
      "51": 2624,
      "5명": 2625,
      "646": 2626,
      "73": 2627,
      "74": 2628,
      "81": 2629,
      "802": 2630,
      "817": 2631,
      "8450": 2632,
      "874": 2633,
      "97": 2634,
      "989": 2635,
      "Av": 2636,
      "B1": 2637,
      "Bay": 2638,
      "Car": 2639,
      "Cash": 2640,
      "Dow": 2641,
      "ED": 2642,
      "EV": 2643,
      "Equ": 2644,
      "Fe": 2645,
      "For": 2646,
      "Fac": 2647,
      "Gro": 2648,
      "Global": 2649,
      "Garment": 2650,
      "HG": 2651,
      "Ho": 2652,
      "Hig": 2653,
      "Id": 2654,
      "Is": 2655,
      "IHG": 2656,
      "Jur": 2657,
      "Looking": 2658,
      "MS": 2659,
      "Mal": 2660,
      "Merah": 2661,
      "Ne": 2662,
      "OI": 2663,
      "PA": 2664,
      "PC": 2665,
      "Po": 2666,
      "Rev": 2667,
      "ROI": 2668,
      "So": 2669,
      "Su": 2670,
      "Som": 2671,
      "Sel": 2672,
      "Sec": 2673,
      "Sands": 2674,
      "SaaS": 2675,
      "Tu": 2676,
      "Talent": 2677,
      "UOB": 2678,
      "UAT": 2679,
      "Who": 2680,
      "You": 2681,
      "_bu": 2682,
      "_cle": 2683,
      "att": 2684,
      "ative": 2685,
      "aerospace": 2686,
      "b3": 2687,
      "bar": 2688,
      "bro": 2689,
      "bri": 2690,
      "beverage": 2691,
      "cre": 2692,
      "cont": 2693,
      "ds": 2694,
      "develo": 2695,
      "eon": 2696,
      "fb": 2697,
      "fin": 2698,
      "fut": 2699,
      "gas": 2700,
      "hg": 2701,
      "handler": 2702,
      "iation": 2703,
      "ipment": 2704,
      "ihg": 2705,
      "jid": 2706,
      "k_singapore_463": 2707,
      "land": 2708,
      "lands": 2709,
      "merah": 2710,
      "menti": 2711,
      "n관리": 2712,
      "n경력": 2713,
      "n주요": 2714,
      "n기타": 2715,
      "n뛰어난": 2716,
      "n컨시어지": 2717,
      "n에미레이트": 2718,
      "ott": 2719,
      "oil": 2720,
      "pa": 2721,
      "pen": 2722,
      "pal": 2723,
      "pay": 2724,
      "rc": 2725,
      "secu": 2726,
      "sup": 2727,
      "sands": 2728,
      "src": 2729,
      "tz": 2730,
      "t침": 2731,
      "tail": 2732,
      "t학력": 2733,
      "t영어": 2734,
      "t식음료": 2735,
      "t고객의": 2736,
      "t비상": 2737,
      "t고등학교": 2738,
      "t우수한": 2739,
      "wealth": 2740,
      "year": 2741,
      "같습니다": 2742,
      "개설": 2743,
      "개월": 2744,
      "계산": 2745,
      "계좌": 2746,
      "계공학": 2747,
      "고액": 2748,
      "과의": 2749,
      "광범": 2750,
      "교사": 2751,
      "구두": 2752,
      "구류": 2753,
      "구사": 2754,
      "구조": 2755,
      "귀하는": 2756,
      "규모": 2757,
      "그리": 2758,
      "기계공학": 2759,
      "긴급": 2760,
      "내에서": 2761,
      "대리": 2762,
      "대출": 2763,
      "대표": 2764,
      "대규모": 2765,
      "도구": 2766,
      "동산": 2767,
      "동안": 2768,
      "되나요": 2769,
      "디고": 2770,
      "라인": 2771,
      "려는": 2772,
      "력과": 2773,
      "로열": 2774,
      "루어지": 2775,
      "리뷰": 2776,
      "리셉": 2777,
      "리어": 2778,
      "리트": 2779,
      "리핀": 2780,
      "리후": 2781,
      "만족": 2782,
      "맞이": 2783,
      "면서": 2784,
      "명확": 2785,
      "명주기": 2786,
      "모델": 2787,
      "문구": 2788,
      "물자": 2789,
      "미널": 2790,
      "미디어": 2791,
      "방식을": 2792,
      "법을": 2793,
      "보관": 2794,
      "보세요": 2795,
      "복리후": 2796,
      "부심": 2797,
      "부동산": 2798,
      "분류": 2799,
      "브로": 2800,
      "빌리지": 2801,
      "사전": 2802,
      "사고의": 2803,
      "상응": 2804,
      "샌즈": 2805,
      "생각": 2806,
      "생산": 2807,
      "생성": 2808,
      "서면": 2809,
      "선도": 2810,
      "셀링": 2811,
      "셔닝": 2812,
      "소유": 2813,
      "속에서도": 2814,
      "스페": 2815,
      "시티": 2816,
      "식별": 2817,
      "신뢰": 2818,
      "신청": 2819,
      "실사": 2820,
      "쓰기": 2821,
      "아웃": 2822,
      "안함": 2823,
      "압축": 2824,
      "어린": 2825,
      "에너": 2826,
      "엔드": 2827,
      "연결": 2828,
      "와의": 2829,
      "외모": 2830,
      "운드": 2831,
      "운반": 2832,
      "워드": 2833,
      "원칙": 2834,
      "유연": 2835,
      "음식": 2836,
      "응답": 2837,
      "의견": 2838,
      "의지": 2839,
      "이루어지": 2840,
      "인재": 2841,
      "인사이트": 2842,
      "인디고": 2843,
      "일본": 2844,
      "임시": 2845,
      "있도록": 2846,
      "있나요": 2847,
      "자신": 2848,
      "자부심": 2849,
      "장기": 2850,
      "장치": 2851,
      "장시간": 2852,
      "정중": 2853,
      "정한": 2854,
      "제너": 2855,
      "조성": 2856,
      "조치": 2857,
      "증권": 2858,
      "지시": 2859,
      "지휘": 2860,
      "지먼트": 2861,
      "진공": 2862,
      "진심": 2863,
      "참석": 2864,
      "최고": 2865,
      "최종": 2866,
      "탐색": 2867,
      "터미널": 2868,
      "트리": 2869,
      "특별": 2870,
      "팀을": 2871,
      "파운드": 2872,
      "패션": 2873,
      "팬트리": 2874,
      "펌프": 2875,
      "편안함": 2876,
      "폐기": 2877,
      "포괄": 2878,
      "필리핀": 2879,
      "하려는": 2880,
      "합의": 2881,
      "협업": 2882,
      "형성": 2883,
      "홍보": 2884,
      "화상": 2885,
      "회전": 2886,
      "힐튼": 2887,
      "ina": 2888,
      "int": 2889,
      "inab": 2890,
      "infrastructure": 2891,
      "investment": 2892,
      "international": 2893,
      "anal": 2894,
      "retail": 2895,
      "enue": 2896,
      "sting": 2897,
      "tif": 2898,
      "adada": 2899,
      "관리를": 2900,
      "•\\...": 2901,
      "기술팀": 2902,
      "포지셔닝": 2903,
      "지원하며": 2904,
      "jobref": 2905,
      "jobboard": 2906,
      "하는지": 2907,
      "고객과": 2908,
      "경험자": 2909,
      "tions": 2910,
      "체크인": 2911,
      "etar": 2912,
      "Clem": 2913,
      "충족하": 2914,
      "ult": 2915,
      "ulta": 2916,
      "tee": 2917,
      "234": 2918,
      "accor": 2919,
      "능력과": 2920,
      "으로서": 2921,
      "프로필": 2922,
      "관련된": 2923,
      "Marina": 2924,
      "ased": 2925,
      "466": 2926,
      "riott": 2927,
      "제공하는": 2928,
      "제공하고": 2929,
      "제공업체": 2930,
      "객실을": 2931,
      "수행하기": 2932,
      "개발자": 2933,
      "_46358": 2934,
      "104": 2935,
      "가능합니다": 2936,
      "careersfut": 2937,
      "하우스키퍼": 2938,
      "Entr": 2939,
      "plann": 2940,
      "168": 2941,
      "aysia": 2942,
      "aysands": 2943,
      "중심적": 2944,
      "_singapore_4635": 2945,
      "_singapore_46352": 2946,
      "_singapore_46363": 2947,
      "_singapore_463646": 2948,
      "함께할": 2949,
      "122025": 2950,
      "감독자": 2951,
      "oodlands": 2952,
      "market": 2953,
      "marine": 2954,
      "marinab": 2955,
      "marriott": 2956,
      "이해하고": 2957,
      "specialist": 2958,
      "담당자": 2959,
      "담당합니다": 2960,
      "cipal": 2961,
      "공급망": 2962,
      "13k_singapore_463": 2963,
      "80874": 2964,
      "청소를": 2965,
      "청소하고": 2966,
      "환경과": 2967,
      "Testing": 2968,
      "장비를": 2969,
      "492": 2970,
      "청결을": 2971,
      "inks": 2972,
      "상태로": 2973,
      "태도와": 2974,
      "6855": 2975,
      "mycareersfut": 2976,
      "경영학": 2977,
      "기록을": 2978,
      "신속히": 2979,
      "신속하게": 2980,
      "제품과": 2981,
      "졸업자": 2982,
      "졸업장": 2983,
      "Developer": 2984,
      "자산가": 2985,
      "Place": 2986,
      "로서의": 2987,
      "효율성": 2988,
      "LinkedInAP": 2989,
      "209": 2990,
      "Agency": 2991,
      "bank_singapore_4635414": 2992,
      "wd1": 2993,
      "wd5": 2994,
      "지정한": 2995,
      "hotel": 2996,
      "사고방식을": 2997,
      "주문을": 2998,
      "표준에": 2999,
      "방문객의": 3000,
      "CMO": 3001,
      "tech_bu": 3002,
      "Chandler": 3003,
      "892": 3004,
      "8938": 3005,
      "USD": 3006,
      "services": 3007,
      "기대치": 3008,
      "기대합니다": 3009,
      "보충합니다": 3010,
      "정돈된": 3011,
      "친절한": 3012,
      "medtech_bu": 3013,
      "포트폴리오의": 3014,
      "Account": 3015,
      "마이크로": 3016,
      "상업적": 3017,
      "Analysis": 3018,
      "WeWork": 3019,
      "_JR100": 3020,
      "111111": 3021,
      "banking_singapore": 3022,
      "Premier": 3023,
      "가치를": 3024,
      "구역의": 3025,
      "완료합니다": 3026,
      "집중하여": 3027,
      "테이블": 3028,
      "082025": 3029,
      "195": 3030,
      "59412": 3031,
      "7cGB": 3032,
      "7c1579": 3033,
      "Careers": 3034,
      "Desk": 3035,
      "cloud": 3036,
      "claims": 3037,
      "gov": 3038,
      "사무실": 3039,
      "압박감": 3040,
      "크로스": 3041,
      "Content": 3042,
      "Control": 3043,
      "river_463449": 3044,
      "river_46359412": 3045,
      "파트너와": 3046,
      "Loyalty": 3047,
      "대상으로": 3048,
      "매니지먼트": 3049,
      "위워크의": 3050,
      "여러분에게": 3051,
      "Bukit": 3052,
      "SAFe": 3053,
      "hyatt": 3054,
      "lutions": 3055,
      "n아래": 3056,
      "officer": 3057,
      "모집합니다": 3058,
      "물품을": 3059,
      "카통에서": 3060,
      "프리미어": 3061,
      "strategy": 3062,
      "chemicaloil": 3063,
      "Qualifications": 3064,
      "충분히": 3065,
      "Principal": 3066,
      "Scootee": 3067,
      "98980874": 3068,
      "Aviation": 3069,
      "Cargo": 3070,
      "Equipment": 3071,
      "Faculta": 3072,
      "Hotel": 3073,
      "High": 3074,
      "Island": 3075,
      "Jurong": 3076,
      "Malaysia": 3077,
      "New": 3078,
      "Revenue": 3079,
      "Solutions": 3080,
      "Supervisor": 3081,
      "Someon": 3082,
      "Seletar": 3083,
      "Tuas": 3084,
      "_clementi": 3085,
      "aerospace_clementi": 3086,
      "brid": 3087,
      "development": 3088,
      "gas_singapore_46363": 3089,
      "handler_singapore": 3090,
      "merah_46358": 3091,
      "supply": 3092,
      "광범위한": 3093,
      "대리점": 3094,
      "로열티": 3095,
      "리어로서의": 3096,
      "복리후생": 3097,
      "상응하는": 3098,
      "소유자": 3099,
      "압축기": 3100,
      "이루어지도록": 3101,
      "자부심을": 3102,
      "Clementi": 3103,
      "Entry": 3104,
      "marinabaysands": 3105,
      "13k_singapore_463466": 3106,
      "mycareersfuture": 3107,
      "medtech_bukit": 3108,
      "마이크로소프트": 3109,
      "_JR100000": 3110,
      "Facultative": 3111,
      "Someone": 3112,
      "gas_singapore_46363892": 3113,
      "merah_46358880": 3114,
      "!\\": 3115,
      ")’": 3116,
      "15": 3117,
      "50": 3118,
      "5과목": 3119,
      "Aust": 3120,
      "Bo": 3121,
      "CA": 3122,
      "CT": 3123,
      "Ci": 3124,
      "Co": 3125,
      "Cer": 3126,
      "Cal": 3127,
      "Cro": 3128,
      "Cour": 3129,
      "Centre": 3130,
      "Cashier": 3131,
      "DB": 3132,
      "Def": 3133,
      "Ev": 3134,
      "Guest": 3135,
      "Hy": 3136,
      "IS": 3137,
      "Lu": 3138,
      "Lab": 3139,
      "Lifecycle": 3140,
      "Met": 3141,
      "Mastercard": 3142,
      "Morpheus": 3143,
      "Net": 3144,
      "Native": 3145,
      "Or": 3146,
      "Ops": 3147,
      "Out": 3148,
      "Pum": 3149,
      "Pers": 3150,
      "Pub": 3151,
      "Priority": 3152,
      "Power": 3153,
      "QA": 3154,
      "REST": 3155,
      "ST": 3156,
      "Se": 3157,
      "Si": 3158,
      "SEM": 3159,
      "SOP": 3160,
      "Ti": 3161,
      "Tr": 3162,
      "Tut": 3163,
      "Table": 3164,
      "Vice": 3165,
      "Vill": 3166,
      "WH": 3167,
      "Word": 3168,
      "ame": 3169,
      "aking": 3170,
      "ber": 3171,
      "cu": 3172,
      "dent": 3173,
      "dust": 3174,
      "eaking": 3175,
      "ful": 3176,
      "gage": 3177,
      "io": 3178,
      "ian": 3179,
      "iance": 3180,
      "kg": 3181,
      "kerage": 3182,
      "len": 3183,
      "lic": 3184,
      "n면": 3185,
      "n비": 3186,
      "n최소": 3187,
      "n고객에게": 3188,
      "n고객의": 3189,
      "n원활한": 3190,
      "n빠르게": 3191,
      "nstre": 3192,
      "n적극적인": 3193,
      "pp": 3194,
      "sion": 3195,
      "sourcing": 3196,
      "sult": 3197,
      "to": 3198,
      "t타": 3199,
      "t매장": 3200,
      "t브랜드": 3201,
      "t호스피탈리티": 3202,
      "t상급자": 3203,
      "t빠르게": 3204,
      "t정해진": 3205,
      "wth": 3206,
      "가이": 3207,
      "가정부": 3208,
      "간의": 3209,
      "감각": 3210,
      "객의": 3211,
      "걸쳐": 3212,
      "겁고": 3213,
      "경우": 3214,
      "계정": 3215,
      "고가치": 3216,
      "관찰": 3217,
      "국어": 3218,
      "기밀": 3219,
      "기반": 3220,
      "기억": 3221,
      "기여": 3222,
      "남는": 3223,
      "납기": 3224,
      "내에": 3225,
      "내역": 3226,
      "니셔": 3227,
      "니즈": 3228,
      "대면": 3229,
      "대사": 3230,
      "대와": 3231,
      "데이트": 3232,
      "도우": 3233,
      "도의": 3234,
      "도전": 3235,
      "되다": 3236,
      "들의": 3237,
      "래플": 3238,
      "력이": 3239,
      "로보": 3240,
      "로운": 3241,
      "롭게": 3242,
      "름을": 3243,
      "링크": 3244,
      "말하기": 3245,
      "메뉴": 3246,
      "모션": 3247,
      "방법을": 3248,
      "배치": 3249,
      "배포": 3250,
      "버트": 3251,
      "벨보이": 3252,
      "보드": 3253,
      "보증": 3254,
      "복도": 3255,
      "본사": 3256,
      "부여": 3257,
      "분실": 3258,
      "브링크": 3259,
      "비주": 3260,
      "상장": 3261,
      "석사": 3262,
      "세심": 3263,
      "셜리스트": 3264,
      "손실": 3265,
      "손을": 3266,
      "순위": 3267,
      "슬리트": 3268,
      "습득": 3269,
      "승객의": 3270,
      "시점": 3271,
      "신중": 3272,
      "심층": 3273,
      "아파트": 3274,
      "않은": 3275,
      "알고": 3276,
      "애슬리트": 3277,
      "앨버트": 3278,
      "어시스": 3279,
      "업데이트": 3280,
      "없이": 3281,
      "염된": 3282,
      "영국": 3283,
      "예약": 3284,
      "오염된": 3285,
      "외주": 3286,
      "요일": 3287,
      "용품": 3288,
      "우편": 3289,
      "워포인트": 3290,
      "위기": 3291,
      "이며": 3292,
      "이미": 3293,
      "이수": 3294,
      "이니셔": 3295,
      "인가": 3296,
      "인력": 3297,
      "인식": 3298,
      "인터": 3299,
      "인텔": 3300,
      "일관": 3301,
      "읽기": 3302,
      "있어": 3303,
      "자료": 3304,
      "재보험": 3305,
      "저희": 3306,
      "적용": 3307,
      "절감": 3308,
      "접근": 3309,
      "정기": 3310,
      "정밀": 3311,
      "정의": 3312,
      "정직": 3313,
      "주변": 3314,
      "준하는": 3315,
      "즐겁고": 3316,
      "진열": 3317,
      "창이": 3318,
      "초등": 3319,
      "촉진": 3320,
      "최우선": 3321,
      "출금": 3322,
      "출입": 3323,
      "취급": 3324,
      "카페": 3325,
      "캡틴": 3326,
      "코트": 3327,
      "타월": 3328,
      "턴트": 3329,
      "토콜": 3330,
      "통제": 3331,
      "통화": 3332,
      "티브": 3333,
      "틱스": 3334,
      "팀에": 3335,
      "팀장": 3336,
      "파손": 3337,
      "파워포인트": 3338,
      "편의": 3339,
      "표를": 3340,
      "플레이어": 3341,
      "하루": 3342,
      "학년": 3343,
      "합류": 3344,
      "행사": 3345,
      "허가": 3346,
      "혁신": 3347,
      "호스트": 3348,
      "환대와": 3349,
      "ines": 3350,
      "ens": 3351,
      "확인하고": 3352,
      "onic": 3353,
      "adle": 3354,
      "관리할": 3355,
      "SGX": 3356,
      "회사를": 3357,
      "고객용": 3358,
      "경험이": 3359,
      "필요에": 3360,
      "체크아웃": 3361,
      "작성합니다": 3362,
      "서비스와": 3363,
      "시스템에": 3364,
      "싱가포르항공": 3365,
      "운영할": 3366,
      "근무가": 3367,
      "근무합니다": 3368,
      "근무하게": 3369,
      "프로모션": 3370,
      "프로토콜": 3371,
      "관련하여": 3372,
      "Inc": 3373,
      "Infra": 3374,
      "Indust": 3375,
      "유지되도록": 3376,
      "제공하며": 3377,
      "수행하고": 3378,
      "emens": 3379,
      "essment": 3380,
      "우대합니다": 3381,
      "분석을": 3382,
      "지식을": 3383,
      "Engage": 3384,
      "pliance": 3385,
      "otive": 3386,
      "chang": 3387,
      "기준이": 3388,
      "기준으로": 3389,
      "162": 3390,
      "API": 3391,
      "APO": 3392,
      "ission": 3393,
      "안전과": 3394,
      "금융서비스": 3395,
      "감독관": 3396,
      "교육을": 3397,
      "매장의": 3398,
      "처리하며": 3399,
      "ralian": 3400,
      "포함하여": 3401,
      "Consult": 3402,
      "원활하고": 3403,
      "재고를": 3404,
      "Compliance": 3405,
      "Assessment": 3406,
      "승무원이": 3407,
      "Bradle": 3408,
      "대응합니다": 3409,
      "SEO": 3410,
      "air": 3411,
      "방문하는": 3412,
      "부서와": 3413,
      "의사소통을": 3414,
      "요구를": 3415,
      "직원의": 3416,
      "sident": 3417,
      "unch": 3418,
      "요청을": 3419,
      "응대합니다": 3420,
      "Strategist": 3421,
      "전반적인": 3422,
      "Commission": 3423,
      "Resort": 3424,
      "긍정적으로": 3425,
      "역량을": 3426,
      "린넨을": 3427,
      "문제를": 3428,
      "일정에": 3429,
      "조율하는": 3430,
      "Allocation": 3431,
      "Allen": 3432,
      "afood": 3433,
      "사용하여": 3434,
      "Support": 3435,
      "스토어": 3436,
      "팀원들과": 3437,
      "컨시어지는": 3438,
      "Law": 3439,
      "Launch": 3440,
      "능통해야": 3441,
      "열정과": 3442,
      "Securities": 3443,
      "변화를": 3444,
      "이벤트에": 3445,
      "적극적으로": 3446,
      "전달합니다": 3447,
      "ilipp": 3448,
      "CISM": 3449,
      "CISSP": 3450,
      "Planner": 3451,
      "vision": 3452,
      "거래를": 3453,
      "접수원": 3454,
      "파악하고": 3455,
      "DevSec": 3456,
      "President": 3457,
      "ROS2": 3458,
      "asda": 3459,
      "Automotive": 3460,
      "활용하여": 3461,
      "보고서를": 3462,
      "18세": 3463,
      "SingHealth": 3464,
      "audit": 3465,
      "공유하는": 3466,
      "과정에서": 3467,
      "매니저": 3468,
      "사람들과": 3469,
      "상급자에게": 3470,
      "숙지하고": 3471,
      "환영하고": 3472,
      "order": 3473,
      "n팀원들을": 3474,
      "n팀원들에게": 3475,
      "따뜻하고": 3476,
      "우선순위": 3477,
      "irm": 3478,
      "press": 3479,
      "독립적으로": 3480,
      "성격을": 3481,
      "어메니티를": 3482,
      "입주민": 3483,
      "추가로": 3484,
      "투숙객": 3485,
      "팀워크를": 3486,
      "Downstre": 3487,
      "Growth": 3488,
      "맞이합니다": 3489,
      "명확하고": 3490,
      "사전에": 3491,
      "스페셜리스트": 3492,
      "외모를": 3493,
      "편안함을": 3494,
      "협업하며": 3495,
      "Australian": 3496,
      "Boeing": 3497,
      "CTO": 3498,
      "Citi": 3499,
      "Certif": 3500,
      "Defence": 3501,
      "Evangelist": 3502,
      "Luxury": 3503,
      "Metho": 3504,
      "Network": 3505,
      "Pumps": 3506,
      "Personal": 3507,
      "Public": 3508,
      "RESTful": 3509,
      "Siemens": 3510,
      "Time": 3511,
      "Tutor": 3512,
      "Tableau": 3513,
      "Village": 3514,
      "기억에": 3515,
      "기여합니다": 3516,
      "니즈를": 3517,
      "도우미": 3518,
      "래플스": 3519,
      "로보틱스": 3520,
      "브링크스": 3521,
      "비주얼": 3522,
      "세심한": 3523,
      "어시스턴트": 3524,
      "이니셔티브": 3525,
      "인텔리전": 3526,
      "최우선으로": 3527,
      "플레이어입니다": 3528,
      "Consulting": 3529,
      "Bradley": 3530,
      "ilippines": 3531,
      "DevSecOps": 3532,
      "Downstream": 3533,
      "05": 3534,
      "0a": 3535,
      "0e": 3536,
      "1C": 3537,
      "128": 3538,
      "123": 3539,
      "103": 3540,
      "146": 3541,
      "1aa": 3542,
      "21": 3543,
      "2F": 3544,
      "2c": 3545,
      "2e": 3546,
      "2w": 3547,
      "210": 3548,
      "216": 3549,
      "245": 3550,
      "32": 3551,
      "36": 3552,
      "37": 3553,
      "39": 3554,
      "3A": 3555,
      "346": 3556,
      "380": 3557,
      "349": 3558,
      "371": 3559,
      "331": 3560,
      "364": 3561,
      "3과목": 3562,
      "3DB": 3563,
      "44": 3564,
      "400": 3565,
      "404": 3566,
      "4100": 3567,
      "4fe": 3568,
      "473": 3569,
      "4B1": 3570,
      "57": 3571,
      "5월": 3572,
      "510": 3573,
      "504": 3574,
      "580": 3575,
      "61": 3576,
      "6c": 3577,
      "600": 3578,
      "680": 3579,
      "625": 3580,
      "627": 3581,
      "6개월": 3582,
      "77": 3583,
      "7B": 3584,
      "728": 3585,
      "7000": 3586,
      "765": 3587,
      "769": 3588,
      "730": 3589,
      "707": 3590,
      "7498": 3591,
      "84": 3592,
      "8B": 3593,
      "8E": 3594,
      "830": 3595,
      "851": 3596,
      "8802": 3597,
      "90": 3598,
      "92": 3599,
      "980": 3600,
      "965": 3601,
      "926": 3602,
      "9817": 3603,
      "9b3": 3604,
      "9234": 3605,
      "94B1": 3606,
      "9510": 3607,
      "?\\": 3608,
      "AB": 3609,
      "AL": 3610,
      "Ath": 3611,
      "ASEA": 3612,
      "A08": 3613,
      "A200": 3614,
      "Asia": 3615,
      "AED": 3616,
      "A8E": 3617,
      "BA": 3618,
      "BP": 3619,
      "Be": 3620,
      "Bel": 3621,
      "BCP": 3622,
      "B81": 3623,
      "Based": 3624,
      "B9510": 3625,
      "Cam": 3626,
      "City": 3627,
      "C94B1": 3628,
      "DR": 3629,
      "Do": 3630,
      "Du": 3631,
      "D00": 3632,
      "Deg": 3633,
      "Direct": 3634,
      "Dam": 3635,
      "DLC": 3636,
      "D7B": 3637,
      "EA": 3638,
      "EU": 3639,
      "EX": 3640,
      "Ec": 3641,
      "EER": 3642,
      "Edu": 3643,
      "E1C": 3644,
      "FF": 3645,
      "FP": 3646,
      "FY": 3647,
      "F04": 3648,
      "Flo": 3649,
      "FCI": 3650,
      "F3DB": 3651,
      "F730": 3652,
      "GM": 3653,
      "Gen": 3654,
      "GTM": 3655,
      "GPA": 3656,
      "HQ": 3657,
      "Hong": 3658,
      "II": 3659,
      "IL": 3660,
      "ITE": 3661,
      "IBP": 3662,
      "Jap": 3663,
      "KS": 3664,
      "Ke": 3665,
      "Kong": 3666,
      "KED": 3667,
      "Le": 3668,
      "Lin": 3669,
      "Llo": 3670,
      "LIN": 3671,
      "Mo": 3672,
      "MIS": 3673,
      "ND": 3674,
      "Ni": 3675,
      "Nex": 3676,
      "NAL": 3677,
      "NITE": 3678,
      "OA": 3679,
      "OR": 3680,
      "OU": 3681,
      "O레벨": 3682,
      "Ph": 3683,
      "Pet": 3684,
      "PKS": 3685,
      "QS": 3686,
      "Ro": 3687,
      "Rem": 3688,
      "REER": 3689,
      "RFP": 3690,
      "RNAL": 3691,
      "Sent": 3692,
      "SIN": 3693,
      "SDLC": 3694,
      "SOA": 3695,
      "Tower": 3696,
      "Woodlands": 3697,
      "WIL": 3698,
      "WOR": 3699,
      "Yis": 3700,
      "YOU": 3701,
      "_w": 3702,
      "_ex": 3703,
      "_25": 3704,
      "_pay": 3705,
      "_hotel": 3706,
      "_CA": 3707,
      "at": 3708,
      "ata": 3709,
      "attendant": 3710,
      "autom": 3711,
      "a2c": 3712,
      "bc": 3713,
      "be": 3714,
      "by": 3715,
      "bff": 3716,
      "b52": 3717,
      "based": 3718,
      "cg": 3719,
      "con": 3720,
      "cap": 3721,
      "cation": 3722,
      "cro": 3723,
      "cri": 3724,
      "city": 3725,
      "corporate": 3726,
      "coot": 3727,
      "chief": 3728,
      "c449": 3729,
      "chain": 3730,
      "cash": 3731,
      "centre": 3732,
      "cashier": 3733,
      "cpa": 3734,
      "d7": 3735,
      "do": 3736,
      "der": 3737,
      "des": 3738,
      "dev": 3739,
      "digital": 3740,
      "distribution": 3741,
      "demand": 3742,
      "dry": 3743,
      "data": 3744,
      "ean": 3745,
      "eption": 3746,
      "e9817": 3747,
      "eb52": 3748,
      "fl": 3749,
      "fm": 3750,
      "fo": 3751,
      "full": 3752,
      "faa": 3753,
      "firm": 3754,
      "gg": 3755,
      "gi": 3756,
      "gis": 3757,
      "garment": 3758,
      "guest": 3759,
      "hr": 3760,
      "hil": 3761,
      "health": 3762,
      "hun": 3763,
      "hong": 3764,
      "hill": 3765,
      "hospitality": 3766,
      "ia": 3767,
      "jap": 3768,
      "j2w": 3769,
      "kong": 3770,
      "let": 3771,
      "loo": 3772,
      "liness": 3773,
      "linked": 3774,
      "lbo": 3775,
      "looking": 3776,
      "lifecycle": 3777,
      "lio": 3778,
      "mt": 3779,
      "man": 3780,
      "mand": 3781,
      "mes": 3782,
      "mastercard": 3783,
      "morpheus": 3784,
      "nC": 3785,
      "n기": 3786,
      "n논": 3787,
      "n만": 3788,
      "n모": 3789,
      "n밝": 3790,
      "n접": 3791,
      "n회사": 3792,
      "n필요": 3793,
      "net": 3794,
      "n싱가포르": 3795,
      "n근무": 3796,
      "n개발": 3797,
      "n음료": 3798,
      "n브랜드": 3799,
      "n담당": 3800,
      "n리테일": 3801,
      "n재고": 3802,
      "n방문": 3803,
      "nology": 3804,
      "n교대": 3805,
      "n다양한": 3806,
      "n제안": 3807,
      "n표준": 3808,
      "n높은": 3809,
      "n프런트": 3810,
      "n나이키": 3811,
      "n불일치": 3812,
      "n경영진": 3813,
      "n전화": 3814,
      "n현금": 3815,
      "nPOS": 3816,
      "n먼지": 3817,
      "n세부": 3818,
      "n적절한": 3819,
      "n럭셔리": 3820,
      "n성실하고": 3821,
      "n도착": 3822,
      "n스파": 3823,
      "n팀의": 3824,
      "n현장": 3825,
      "n말레이시아": 3826,
      "n리셉": 3827,
      "n최종": 3828,
      "n힐튼": 3829,
      "n하우스키퍼": 3830,
      "n압박감": 3831,
      "name": 3832,
      "n사람들과": 3833,
      "nO레벨": 3834,
      "oW": 3835,
      "os": 3836,
      "oul": 3837,
      "ote": 3838,
      "osystem": 3839,
      "open": 3840,
      "oint": 3841,
      "pt": 3842,
      "pull": 3843,
      "put": 3844,
      "priority": 3845,
      "point": 3846,
      "robotics": 3847,
      "raffles": 3848,
      "sk": 3849,
      "so": 3850,
      "sing": 3851,
      "sales": 3852,
      "scm": 3853,
      "sort": 3854,
      "sonal": 3855,
      "scoot": 3856,
      "t덧": 3857,
      "t별": 3858,
      "t입": 3859,
      "ton": 3860,
      "t업무": 3861,
      "t서비스": 3862,
      "tab": 3863,
      "t담당": 3864,
      "t직원": 3865,
      "t고객을": 3866,
      "t프런트": 3867,
      "t주도": 3868,
      "t세탁": 3869,
      "tale": 3870,
      "t배정": 3871,
      "talent": 3872,
      "t체크인": 3873,
      "t초등": 3874,
      "tmt": 3875,
      "ud": 3876,
      "uob": 3877,
      "way": 3878,
      "will": 3879,
      "ytics": 3880,
      "yds": 3881,
      "yscoot": 3882,
      "가가": 3883,
      "가구": 3884,
      "가요": 3885,
      "가운": 3886,
      "각적으로": 3887,
      "간호": 3888,
      "강화": 3889,
      "강하며": 3890,
      "객업": 3891,
      "갱신": 3892,
      "거시": 3893,
      "거용": 3894,
      "걸레": 3895,
      "검수": 3896,
      "결과": 3897,
      "결정": 3898,
      "계신": 3899,
      "고된": 3900,
      "고품질": 3901,
      "고수준": 3902,
      "곱셈": 3903,
      "곳에서": 3904,
      "공감": 3905,
      "공고": 3906,
      "공용": 3907,
      "공인": 3908,
      "과외": 3909,
      "교체": 3910,
      "교환": 3911,
      "굽히": 3912,
      "그먼": 3913,
      "그랜드": 3914,
      "그레이": 3915,
      "그레이션": 3916,
      "극대": 3917,
      "기전": 3918,
      "기존": 3919,
      "기초": 3920,
      "까다": 3921,
      "깔끔": 3922,
      "끼는": 3923,
      "나눗": 3924,
      "나는": 3925,
      "나다": 3926,
      "남성": 3927,
      "느끼는": 3928,
      "니라": 3929,
      "니스트": 3930,
      "닝콜": 3931,
      "다스": 3932,
      "다중": 3933,
      "다즈": 3934,
      "다문화": 3935,
      "다가가": 3936,
      "닦기": 3937,
      "단정한": 3938,
      "당국": 3939,
      "당길": 3940,
      "대기": 3941,
      "대시": 3942,
      "대에": 3943,
      "대학": 3944,
      "덕션": 3945,
      "데모": 3946,
      "데이": 3947,
      "도달": 3948,
      "도자료": 3949,
      "동기": 3950,
      "동등": 3951,
      "동물": 3952,
      "동선": 3953,
      "동작": 3954,
      "동시에": 3955,
      "되게": 3956,
      "두바이": 3957,
      "드벤": 3958,
      "드라인": 3959,
      "들을": 3960,
      "들에게": 3961,
      "등과": 3962,
      "등을": 3963,
      "등의": 3964,
      "디버": 3965,
      "디스": 3966,
      "디다스": 3967,
      "딩스": 3968,
      "따른": 3969,
      "라룸": 3970,
      "래밍": 3971,
      "래블": 3972,
      "량을": 3973,
      "런스": 3974,
      "럴리스트": 3975,
      "럽게": 3976,
      "레거시": 3977,
      "렉트": 3978,
      "려로": 3979,
      "로그": 3980,
      "로부": 3981,
      "록스": 3982,
      "록을": 3983,
      "롬프트": 3984,
      "룸서비스": 3985,
      "르바": 3986,
      "르에서": 3987,
      "리고": 3988,
      "리베": 3989,
      "리즘": 3990,
      "리핑": 3991,
      "리적인": 3992,
      "리케이션": 3993,
      "리적이며": 3994,
      "리데이": 3995,
      "만다이": 3996,
      "만들어": 3997,
      "만나는": 3998,
      "맞게": 3999,
      "맞는": 4000,
      "멀티": 4001,
      "메시": 4002,
      "모두": 4003,
      "모닝콜": 4004,
      "목적": 4005,
      "목록을": 4006,
      "무릎": 4007,
      "문신": 4008,
      "물과": 4009,
      "미국": 4010,
      "미팅": 4011,
      "밀거나": 4012,
      "바른": 4013,
      "반납": 4014,
      "받을": 4015,
      "발된": 4016,
      "방지": 4017,
      "배달": 4018,
      "배분": 4019,
      "배우": 4020,
      "배려로": 4021,
      "백엔드": 4022,
      "버틀": 4023,
      "범을": 4024,
      "법률": 4025,
      "법무": 4026,
      "보더": 4027,
      "보육": 4028,
      "보도자료": 4029,
      "복구": 4030,
      "복장": 4031,
      "복합": 4032,
      "부품": 4033,
      "부한": 4034,
      "부자재": 4035,
      "분들의": 4036,
      "불만": 4037,
      "불편": 4038,
      "브리드": 4039,
      "브로드": 4040,
      "브리핑": 4041,
      "비자": 4042,
      "비재": 4043,
      "비전": 4044,
      "비치": 4045,
      "비틀": 4046,
      "비하고": 4047,
      "빠른": 4048,
      "뺄셈": 4049,
      "뻗어": 4050,
      "뿐만": 4051,
      "사양": 4052,
      "사업": 4053,
      "사한": 4054,
      "사우스": 4055,
      "산물": 4056,
      "상담": 4057,
      "상호": 4058,
      "생명주기": 4059,
      "생동물": 4060,
      "서서": 4061,
      "석유": 4062,
      "선발된": 4063,
      "설비": 4064,
      "섬유": 4065,
      "성공": 4066,
      "성에": 4067,
      "성향": 4068,
      "세를": 4069,
      "세션": 4070,
      "세그먼": 4071,
      "센트": 4072,
      "셔니스트": 4073,
      "소독": 4074,
      "소매": 4075,
      "소기업": 4076,
      "소비재": 4077,
      "수령": 4078,
      "수를": 4079,
      "수시": 4080,
      "수영": 4081,
      "수익": 4082,
      "수표": 4083,
      "수학": 4084,
      "수명주기": 4085,
      "순수": 4086,
      "쉬운": 4087,
      "스틴": 4088,
      "스케어": 4089,
      "스럽게": 4090,
      "습을": 4091,
      "시는": 4092,
      "시던트": 4093,
      "시각적으로": 4094,
      "식의": 4095,
      "식회사": 4096,
      "신발": 4097,
      "신체": 4098,
      "신다면": 4099,
      "실적": 4100,
      "실제": 4101,
      "실시간": 4102,
      "심도": 4103,
      "심사": 4104,
      "심화": 4105,
      "쓰레": 4106,
      "쓸기": 4107,
      "아님": 4108,
      "아이": 4109,
      "아니라": 4110,
      "아디다스": 4111,
      "아르바": 4112,
      "안다즈": 4113,
      "앉거나": 4114,
      "않는": 4115,
      "알라룸": 4116,
      "애가": 4117,
      "애자": 4118,
      "애플": 4119,
      "야간": 4120,
      "야생동물": 4121,
      "약점": 4122,
      "얏트": 4123,
      "어즈": 4124,
      "어드벤": 4125,
      "언제": 4126,
      "업셀링": 4127,
      "업그레이": 4128,
      "에도": 4129,
      "엔터": 4130,
      "엘리베": 4131,
      "여기": 4132,
      "여성": 4133,
      "연습을": 4134,
      "예의": 4135,
      "오전": 4136,
      "오후": 4137,
      "오의료": 4138,
      "오리티": 4139,
      "온라인": 4140,
      "올리고": 4141,
      "외관": 4142,
      "외에도": 4143,
      "요금": 4144,
      "용소비재": 4145,
      "웃룩": 4146,
      "원고": 4147,
      "원단": 4148,
      "웨이": 4149,
      "웨스틴": 4150,
      "웰스": 4151,
      "유창": 4152,
      "유치": 4153,
      "유한": 4154,
      "유형": 4155,
      "유롭게": 4156,
      "유사한": 4157,
      "육성": 4158,
      "응용": 4159,
      "의적": 4160,
      "이나": 4161,
      "이를": 4162,
      "이용": 4163,
      "이익": 4164,
      "이저": 4165,
      "이하": 4166,
      "이프라": 4167,
      "이브리드": 4168,
      "인수": 4169,
      "인의": 4170,
      "인지": 4171,
      "인먼트": 4172,
      "인시던트": 4173,
      "일부": 4174,
      "일할": 4175,
      "일용소비재": 4176,
      "읽고": 4177,
      "임상": 4178,
      "임원": 4179,
      "임의적": 4180,
      "입금": 4181,
      "입출": 4182,
      "입력을": 4183,
      "입고된": 4184,
      "있고": 4185,
      "있을": 4186,
      "있거나": 4187,
      "자기": 4188,
      "자공학": 4189,
      "자세를": 4190,
      "자유롭게": 4191,
      "작용": 4192,
      "장소": 4193,
      "장애가": 4194,
      "재해": 4195,
      "적응": 4196,
      "전력": 4197,
      "전합니다": 4198,
      "전기전": 4199,
      "정신": 4200,
      "정에서": 4201,
      "정비하고": 4202,
      "제어": 4203,
      "제자": 4204,
      "제작": 4205,
      "제표": 4206,
      "조건": 4207,
      "조언": 4208,
      "존중": 4209,
      "종단": 4210,
      "주류": 4211,
      "주거용": 4212,
      "주식회사": 4213,
      "주인의": 4214,
      "중개인": 4215,
      "중장기": 4216,
      "중소기업": 4217,
      "지침": 4218,
      "지표": 4219,
      "지시에": 4220,
      "지까지": 4221,
      "직업": 4222,
      "직접": 4223,
      "집니다": 4224,
      "차가운": 4225,
      "창출": 4226,
      "채널": 4227,
      "채팅": 4228,
      "천합니다": 4229,
      "최고의": 4230,
      "추구": 4231,
      "추천합니다": 4232,
      "취합니다": 4233,
      "취약점": 4234,
      "측정에서": 4235,
      "침구류": 4236,
      "카드": 4237,
      "카트": 4238,
      "캐빈": 4239,
      "캐나다": 4240,
      "컨퍼": 4241,
      "쿠알라룸": 4242,
      "쿼리": 4243,
      "크록스": 4244,
      "킹에서": 4245,
      "택배": 4246,
      "테크": 4247,
      "테인먼트": 4248,
      "통신": 4249,
      "퇴실": 4250,
      "튜터": 4251,
      "트래블": 4252,
      "특히": 4253,
      "파이프라": 4254,
      "푸드": 4255,
      "푸르에서": 4256,
      "풀만": 4257,
      "풍부한": 4258,
      "프사이": 4259,
      "프롬프트": 4260,
      "피어": 4261,
      "하에서도": 4262,
      "하세요": 4263,
      "하얏트": 4264,
      "하이브리드": 4265,
      "한의": 4266,
      "할당": 4267,
      "함으로": 4268,
      "합리적인": 4269,
      "해산물": 4270,
      "행동": 4271,
      "헬스케어": 4272,
      "현재": 4273,
      "형식의": 4274,
      "혜택": 4275,
      "혼잡": 4276,
      "홀딩스": 4277,
      "홀리데이": 4278,
      "화물": 4279,
      "화하는": 4280,
      "확대": 4281,
      "활기": 4282,
      "활동": 4283,
      "후의": 4284,
      "흐름을": 4285,
      "inventory": 4286,
      "intelligence": 4287,
      "infra": 4288,
      "anes": 4289,
      "anliness": 4290,
      "ree": 4291,
      "rer": 4292,
      "rece": 4293,
      "resort": 4294,
      "erp": 4295,
      "ersp": 4296,
      "erNex": 4297,
      "errer": 4298,
      "025": 4299,
      "022025": 4300,
      "0063": 4301,
      "engg": 4302,
      "확인할": 4303,
      "stengg": 4304,
      "til": 4305,
      "자격이": 4306,
      "2025년": 4307,
      "2026년": 4308,
      "2026492": 4309,
      "2026_25": 4310,
      "adad": 4311,
      "adas": 4312,
      "admin": 4313,
      "adid": 4314,
      "adway": 4315,
      "업무가": 4316,
      "업무는": 4317,
      "관리하는": 4318,
      "allocation": 4319,
      "also": 4320,
      "SGP": 4321,
      "agent": 4322,
      "agency": 4323,
      "org": 4324,
      "2801": 4325,
      "28Retail": 4326,
      "2860": 4327,
      "28Hospitality": 4328,
      "2851": 4329,
      "28Malaysia": 4330,
      "28Village": 4331,
      "28346": 4332,
      "Singapore과": 4333,
      "ics": 4334,
      "iconic": 4335,
      "기술에": 4336,
      "기술자": 4337,
      "기술팀과": 4338,
      "000504": 4339,
      "000851": 4340,
      "지원하기": 4341,
      "jobdetail": 4342,
      "jobdetails": 4343,
      "jobId": 4344,
      "tta": 4345,
      "필요합니다": 4346,
      "사항은": 4347,
      "사항이": 4348,
      "esgroup": 4349,
      "이상에": 4350,
      "http": 4351,
      "mentation": 4352,
      "eck": 4353,
      "ection": 4354,
      "ec58": 4355,
      "architect": 4356,
      "주의를": 4357,
      "체크리스트를": 4358,
      "ation_singapore": 4359,
      "설명할": 4360,
      "personal": 4361,
      "Clean": 4362,
      "충족할": 4363,
      "충족해야": 4364,
      "충족하기": 4365,
      "충족되었는지": 4366,
      "ce45": 4367,
      "서비스에": 4368,
      "여부를": 4369,
      "여부에": 4370,
      "roperty": 4371,
      "rochemical": 4372,
      "학력을": 4373,
      "23245": 4374,
      "acquisition": 4375,
      "account": 4376,
      "0397": 4377,
      "03728": 4378,
      "시스템에서": 4379,
      "TERNAL": 4380,
      "운영될": 4381,
      "운영에": 4382,
      "운영이": 4383,
      "운영하고": 4384,
      "운영되도록": 4385,
      "Execu": 4386,
      "ther": 4387,
      "근무를": 4388,
      "프로덕션": 4389,
      "event": 4390,
      "evangelist": 4391,
      "Insurance": 4392,
      "Market": 4393,
      "호텔에": 4394,
      "호텔의": 4395,
      "호텔에서": 4396,
      "유지를": 4397,
      "5년의": 4398,
      "ase": 4399,
      "asersp": 4400,
      "lebar": 4401,
      "ript": 4402,
      "risk": 4403,
      "제공자": 4404,
      "제공하려는": 4405,
      "수행하는": 4406,
      "수행하게": 4407,
      "수행되었는지": 4408,
      "수행하려는": 4409,
      "emir": 4410,
      "_singapore_46": 4411,
      "개발된": 4412,
      "개발영업": 4413,
      "개발팀을": 4414,
      "_46330": 4415,
      "107": 4416,
      "108": 4417,
      "10880": 4418,
      "us_hotel": 4419,
      "데이터센터": 4420,
      "careersmarket": 4421,
      "careersection": 4422,
      "Back": 4423,
      "plc": 4424,
      "place": 4425,
      "049": 4426,
      "전문학사": 4427,
      "전문성을": 4428,
      "전문적이고": 4429,
      "전문대학": 4430,
      "edId": 4431,
      "866": 4432,
      "86B81": 4433,
      "chen": 4434,
      "chlo": 4435,
      "chandler": 4436,
      "16세": 4437,
      "1614": 4438,
      "1607": 4439,
      "16364": 4440,
      "에게서": 4441,
      "manager_singapore_463": 4442,
      "manager_singapore_4635414": 4443,
      "loyalty": 4444,
      "영업량": 4445,
      "영업팀": 4446,
      "안전하고": 4447,
      "준수하고": 4448,
      "준수하며": 4449,
      "_singapore_463579": 4450,
      "_singapore_46348": 4451,
      "_singapore_463380": 4452,
      "리더에게": 4453,
      "리더로서": 4454,
      "12월": 4455,
      "1201": 4456,
      "1227": 4457,
      "127498": 4458,
      "ftl": 4459,
      "역할에서": 4460,
      "감독합니다": 4461,
      "감독하고": 4462,
      "음료에": 4463,
      "교육학": 4464,
      "교육하며": 4465,
      "매장별": 4466,
      "소통을": 4467,
      "소통하는": 4468,
      "referrer": 4469,
      "브랜드의": 4470,
      "이해와": 4471,
      "처리를": 4472,
      "50000": 4473,
      "직무로": 4474,
      "직무에서": 4475,
      "spa": 4476,
      "speaking": 4477,
      "담당하고": 4478,
      "citi": 4479,
      "136": 4480,
      "138": 4481,
      "13579": 4482,
      "13a2c": 4483,
      "avel": 4484,
      "청소한": 4485,
      "협력을": 4486,
      "협력적인": 4487,
      "재고가": 4488,
      "항공권": 4489,
      "항공기": 4490,
      "ACII": 4491,
      "Company": 4492,
      "Comput": 4493,
      "React": 4494,
      "장비의": 4495,
      "프레이저": 4496,
      "49c449": 4497,
      "front": 4498,
      "frasersp": 4499,
      "승무원에게서": 4500,
      "의사결정": 4501,
      "Bring": 4502,
      "Brinks": 4503,
      "대응하고": 4504,
      "엔지니어와": 4505,
      "목표로": 4506,
      "목표에": 4507,
      "보험증권": 4508,
      "책임이": 4509,
      "책임집니다": 4510,
      "의사소통할": 4511,
      "5417": 4512,
      "5409": 4513,
      "5450": 4514,
      "65d7": 4515,
      "6893": 4516,
      "6836": 4517,
      "68926": 4518,
      "681614": 4519,
      "시장에": 4520,
      "정확성에": 4521,
      "참여를": 4522,
      "참여합니다": 4523,
      "Advent": 4524,
      "shipping": 4525,
      "기록합니다": 4526,
      "기록하고": 4527,
      "신속한": 4528,
      "실행에": 4529,
      "인프라팀": 4530,
      "정책에": 4531,
      "6920": 4532,
      "6907": 4533,
      "6927": 4534,
      "69404": 4535,
      "6903728": 4536,
      "69049": 4537,
      "691607": 4538,
      "Develop": 4539,
      "cmo": 4540,
      "sea": 4541,
      "seafood": 4542,
      "기기를": 4543,
      "뛰어나": 4544,
      "리스크에": 4545,
      "바이오의료": 4546,
      "솔루션을": 4547,
      "응대가": 4548,
      "응대를": 4549,
      "응대에": 4550,
      "응대에서": 4551,
      "자산을": 4552,
      "조정에": 4553,
      "Strategis": 4554,
      "Media": 4555,
      "시간대에": 4556,
      "2016": 4557,
      "5800": 4558,
      "589b3": 4559,
      "bank_singapore_463380": 4560,
      "wd3": 4561,
      "라이프사이": 4562,
      "지정하는": 4563,
      "프론트오피스": 4564,
      "프론트엔드": 4565,
      "해결합니다": 4566,
      "onteck": 4567,
      "프로그래밍": 4568,
      "host": 4569,
      "hoonteck": 4570,
      "멤버십": 4571,
      "문의를": 4572,
      "우수성": 4573,
      "우수하고": 4574,
      "일정도": 4575,
      "조율합니다": 4576,
      "주문에서": 4577,
      "컨시어즈": 4578,
      "Assistant_JR": 4579,
      "엔지니어링에": 4580,
      "방문객에게": 4581,
      "793": 4582,
      "7901": 4583,
      "79209": 4584,
      "Alber": 4585,
      "external": 4586,
      "express": 4587,
      "lobby": 4588,
      "project": 4589,
      "product": 4590,
      "provision": 4591,
      "singaporeair": 4592,
      "singaporehong": 4593,
      "tain": 4594,
      "규정을": 4595,
      "사용에": 4596,
      "점검하고": 4597,
      "점검하여": 4598,
      "최적의": 4599,
      "슈퍼바이저가": 4600,
      "데스크가": 4601,
      "데스크를": 4602,
      "스토리지": 4603,
      "재무제표": 4604,
      "컴퓨터공학": 4605,
      "173": 4606,
      "17ce45": 4607,
      "170397": 4608,
      "102025": 4609,
      "267": 4610,
      "301201": 4611,
      "719": 4612,
      "n호텔경영": 4613,
      "n호텔리어로서의": 4614,
      "wework": 4615,
      "구매팀": 4616,
      "기대하는": 4617,
      "보충을": 4618,
      "정돈되며": 4619,
      "정돈되게": 4620,
      "medical": 4621,
      "최적화를": 4622,
      "마인드와": 4623,
      "2526": 4624,
      "256855": 4625,
      "cleanliness": 4626,
      "t호텔경영": 4627,
      "t호텔리어로서의": 4628,
      "마이그레이션": 4629,
      "상업용": 4630,
      "일치하는지": 4631,
      "적극적이고": 4632,
      "ootExternal": 4633,
      "Housekeeper": 4634,
      "모니터링합니다": 4635,
      "290": 4636,
      "3159": 4637,
      "551": 4638,
      "55파운드": 4639,
      "63144": 4640,
      "63802": 4641,
      "West": 4642,
      "_JR2026492": 4643,
      "ahc": 4644,
      "boeing": 4645,
      "grand": 4646,
      "거래에": 4647,
      "일상적인": 4648,
      "일상적으로": 4649,
      "작업이": 4650,
      "접수합니다": 4651,
      "접수하고": 4652,
      "접수되는": 4653,
      "지속적인": 4654,
      "지속적으로": 4655,
      "파악하여": 4656,
      "효과적인": 4657,
      "효과적이고": 4658,
      "지원자는": 4659,
      "lead_singapore_463579": 4660,
      "11700": 4661,
      "111169": 4662,
      "_singapore_46354169": 4663,
      "_singapore_46354146": 4664,
      "프라이오리티": 4665,
      "프레임워크에": 4666,
      "아키텍처에서": 4667,
      "Script": 4668,
      "ScootExternal": 4669,
      "가격을": 4670,
      "공간이": 4671,
      "구역에": 4672,
      "기회를": 4673,
      "능숙도": 4674,
      "능숙한": 4675,
      "배송까지": 4676,
      "불일치에": 4677,
      "비품을": 4678,
      "상황에": 4679,
      "숙련도의": 4680,
      "인사를": 4681,
      "인사관리": 4682,
      "자동차": 4683,
      "조사를": 4684,
      "집중한": 4685,
      "집중력과": 4686,
      "플랫폼용": 4687,
      "ors_singapore_463646": 4688,
      "asdasd": 4689,
      "asdadada": 4690,
      "경영진급": 4691,
      "Housekeeping_JR100000": 4692,
      "192": 4693,
      "1963144": 4694,
      "44981": 4695,
      "CareerNex": 4696,
      "Datab": 4697,
      "Design": 4698,
      "Descri": 4699,
      "Reception": 4700,
      "central_singapore": 4701,
      "nike": 4702,
      "supervisor": 4703,
      "면접을": 4704,
      "보이며": 4705,
      "보이지": 4706,
      "철저한": 4707,
      "청구의": 4708,
      "투자자": 4709,
      "향상시": 4710,
      "en_US": 4711,
      "associate": 4712,
      "68820": 4713,
      "68873": 4714,
      "688830": 4715,
      "6882860": 4716,
      "파트너십": 4717,
      "182": 4718,
      "2년의": 4719,
      "Logist": 4720,
      "Paya": 4721,
      "philippines": 4722,
      "공유할": 4723,
      "문화를": 4724,
      "사람들을": 4725,
      "수거합니다": 4726,
      "숙지합니다": 4727,
      "숙지하여": 4728,
      "스쿠트": 4729,
      "언어로": 4730,
      "예정자": 4731,
      "예정입니다": 4732,
      "욕실의": 4733,
      "유통에서": 4734,
      "환영합니다": 4735,
      "환영하는": 4736,
      "관리자의": 4737,
      "관계자와의": 4738,
      "ApplicationMetho": 4739,
      "여러분의": 4740,
      "6677": 4741,
      "66E1C": 4742,
      "93625": 4743,
      "Area": 4744,
      "Portfo": 4745,
      "_RoW": 4746,
      "_R000504": 4747,
      "_R68820": 4748,
      "brand": 4749,
      "branch": 4750,
      "brinks": 4751,
      "hybrid": 4752,
      "luxury": 4753,
      "n아웃룩": 4754,
      "n매장을": 4755,
      "n매장이": 4756,
      "n영어로": 4757,
      "n영어에": 4758,
      "office": 4759,
      "ptionist": 4760,
      "shift_singapore": 4761,
      "따뜻한": 4762,
      "배경의": 4763,
      "배정하고": 4764,
      "지점에서": 4765,
      "프리미엄": 4766,
      "회계학": 4767,
      "strategist": 4768,
      "apac_singapore_46": 4769,
      "management_central": 4770,
      "management_singapore_4635": 4771,
      "135349": 4772,
      "13528346": 4773,
      "13569404": 4774,
      "498498": 4775,
      "Associate_JR": 4776,
      "책임감이": 4777,
      "boarding": 4778,
      "Qualification": 4779,
      "샹그릴라의": 4780,
      "One": 4781,
      "Onboarding": 4782,
      "SPM": 4783,
      "feedId": 4784,
      "premier": 4785,
      "t최소한의": 4786,
      "검증하며": 4787,
      "공동보험사": 4788,
      "기관의": 4789,
      "다이렉트": 4790,
      "독립적": 4791,
      "서류를": 4792,
      "실천합니다": 4793,
      "실천하고": 4794,
      "일원으로": 4795,
      "일원으로서": 4796,
      "진행할": 4797,
      "투숙하는": 4798,
      "street": 4799,
      "이상이어야": 4800,
      "이상이면서": 4801,
      "Rep_JR2026492": 4802,
      "port_singapore": 4803,
      "보험사와": 4804,
      "레이어드": 4805,
      "KPI에": 4806,
      "노동법에": 4807,
      "++,": 4808,
      "++/": 4809,
      "81728": 4810,
      "B1AB": 4811,
      "Point": 4812,
      "ROI를": 4813,
      "UOBExternal": 4814,
      "UAT와": 4815,
      "b3e9817": 4816,
      "brokerage": 4817,
      "broadway": 4818,
      "crew": 4819,
      "credit": 4820,
      "content": 4821,
      "control": 4822,
      "fb93": 4823,
      "finance": 4824,
      "financial": 4825,
      "paign": 4826,
      "payroll": 4827,
      "security": 4828,
      "securities": 4829,
      "tzname": 4830,
      "t침대": 4831,
      "t침구류": 4832,
      "t영어로": 4833,
      "wealth_singapore_46354146": 4834,
      "구조에": 4835,
      "구조화": 4836,
      "그리고": 4837,
      "대표할": 4838,
      "리셉션": 4839,
      "만족도": 4840,
      "모델을": 4841,
      "분류하고": 4842,
      "브로커": 4843,
      "브로킹에서": 4844,
      "생각하고": 4845,
      "생각하며": 4846,
      "실사로": 4847,
      "에너지": 4848,
      "에너지를": 4849,
      "유연하게": 4850,
      "유연성을": 4851,
      "의견을": 4852,
      "의지와": 4853,
      "인재를": 4854,
      "인사이트를": 4855,
      "일본어": 4856,
      "자신감": 4857,
      "장치와": 4858,
      "정중하게": 4859,
      "제너레이션": 4860,
      "제너럴리스트": 4861,
      "조성합니다": 4862,
      "조치를": 4863,
      "지시사항을": 4864,
      "지휘관": 4865,
      "참석합니다": 4866,
      "참석하고": 4867,
      "탐색에": 4868,
      "폐기물": 4869,
      "포괄적": 4870,
      "포괄적인": 4871,
      "홍보대사": 4872,
      "화상회의": 4873,
      "infrastructure_singapore_4635": 4874,
      "analyst": 4875,
      "analytics": 4876,
      "retail_pay": 4877,
      "충족하시는": 4878,
      "충족하신다면": 4879,
      "planner": 4880,
      "planning": 4881,
      "_singapore_46352110": 4882,
      "_singapore_46352103": 4883,
      "_singapore_46364692": 4884,
      "감독자의": 4885,
      "market_singapore_46354169": 4886,
      "specialist_singapore": 4887,
      "4922801": 4888,
      "6855765": 4889,
      "2096": 4890,
      "bank_singapore_46354145": 4891,
      "bank_singapore_46354147": 4892,
      "기대치를": 4893,
      "1111111": 4894,
      "7c157964": 4895,
      "7c157966": 4896,
      "Careers_RoW": 4897,
      "크로스셀링": 4898,
      "크로스보더": 4899,
      "river_46344986": 4900,
      "river_46344932": 4901,
      "Supervisor_JR100000": 4902,
      "13k_singapore_46346607": 4903,
      "13k_singapore_46346608": 4904,
      "Calcu": 4905,
      "Cross": 4906,
      "Court": 4907,
      "Cashier_R68820": 4908,
      "Hybrid": 4909,
      "Labor": 4910,
      "Order": 4911,
      "Outloo": 4912,
      "PowerPoint": 4913,
      "Seoul": 4914,
      "Travel": 4915,
      "WHAT": 4916,
      "n면허": 4917,
      "n비행": 4918,
      "t타인": 4919,
      "t상급자가": 4920,
      "가이드라인": 4921,
      "관찰력을": 4922,
      "분실물": 4923,
      "습득물을": 4924,
      "신중함": 4925,
      "알고리즘": 4926,
      "업데이트합니다": 4927,
      "이미지를": 4928,
      "인터뷰": 4929,
      "일관된": 4930,
      "정기적인": 4931,
      "정직성": 4932,
      "카페의": 4933,
      "편의시설": 4934,
      "합류해": 4935,
      "체크아웃을": 4936,
      "Industry": 4937,
      "changi": 4938,
      "auditors_singapore_463646": 4939,
      "매니저를": 4940,
      "입주민과": 4941,
      "Certification": 4942,
      "인텔리전스": 4943,
      "0a13a2c": 4944,
      "0e6c": 4945,
      "1284922801": 4946,
      "1aa2e": 4947,
      "2FCalcu": 4948,
      "210cm": 4949,
      "3A30": 4950,
      "331A08": 4951,
      "4fe589b3": 4952,
      "57200": 4953,
      "680707": 4954,
      "7000450": 4955,
      "8BD00": 4956,
      "9655417": 4957,
      "923439": 4958,
      "Athlet": 4959,
      "ASEAN": 4960,
      "A200F730": 4961,
      "A8EF3DB": 4962,
      "Bellbo": 4963,
      "B9510A8EF3DB": 4964,
      "Campaign": 4965,
      "C94B1D7B": 4966,
      "Duties": 4967,
      "Degree": 4968,
      "Damai": 4969,
      "EUR": 4970,
      "EXTERNAL": 4971,
      "Ecosystem": 4972,
      "Education": 4973,
      "FF8BD00": 4974,
      "FY2526": 4975,
      "Floor": 4976,
      "GMT": 4977,
      "Gener": 4978,
      "Japanes": 4979,
      "Key": 4980,
      "KEDIN": 4981,
      "Lebar": 4982,
      "Linen": 4983,
      "Lloyds": 4984,
      "LINKEDIN": 4985,
      "Nike": 4986,
      "NITEC": 4987,
      "Petrochemical": 4988,
      "QSR": 4989,
      "Room": 4990,
      "Remote": 4991,
      "REERS": 4992,
      "Sentos": 4993,
      "SIN000851": 4994,
      "WILL": 4995,
      "WORK": 4996,
      "Yishun": 4997,
      "_woodlands": 4998,
      "_ext": 4999,
      "_CAREERS": 5000,
      "atesgroup": 5001,
      "automation_singapore": 5002,
      "bcbff": 5003,
      "contract": 5004,
      "captain": 5005,
      "crocs": 5006,
      "cpaas": 5007,
      "doing": 5008,
      "design": 5009,
      "device": 5010,
      "distribution_woodlands": 5011,
      "eb5217ce45": 5012,
      "flyscoot": 5013,
      "fmcg": 5014,
      "garment_central": 5015,
      "hilton": 5016,
      "linkedin": 5017,
      "mandai": 5018,
      "mes_singapore_46352103": 5019,
      "n기내에서": 5020,
      "n논리적이며": 5021,
      "n모범을": 5022,
      "n밝고": 5023,
      "n접객업": 5024,
      "n싱가포르의": 5025,
      "nologyrecruitment": 5026,
      "n리셉셔니스트": 5027,
      "n하우스키퍼가": 5028,
      "pullman": 5029,
      "singhealth": 5030,
      "scm_singapore_46352110": 5031,
      "t덧셈": 5032,
      "t별도의": 5033,
      "t입실": 5034,
      "t주도적으로": 5035,
      "taleo": 5036,
      "t배정된": 5037,
      "uobgroup": 5038,
      "간호사": 5039,
      "갱신을": 5040,
      "걸레질": 5041,
      "계신가요": 5042,
      "고품질의": 5043,
      "교환기를": 5044,
      "굽히기": 5045,
      "극대화하는": 5046,
      "까다로운": 5047,
      "깔끔하고": 5048,
      "나눗셈": 5049,
      "다가가기": 5050,
      "대시보드": 5051,
      "동등한": 5052,
      "동작을": 5053,
      "디버그": 5054,
      "로부터": 5055,
      "멀티채널": 5056,
      "메시지를": 5057,
      "목적지까지": 5058,
      "문신이": 5059,
      "배우고": 5060,
      "버틀러": 5061,
      "브로드웨이": 5062,
      "비틀기": 5063,
      "상호작용": 5064,
      "석유화학": 5065,
      "성향을": 5066,
      "세션에": 5067,
      "세그먼테이션": 5068,
      "센트럴": 5069,
      "수영장": 5070,
      "실시간으로": 5071,
      "아이디어": 5072,
      "아르바이트": 5073,
      "애자일": 5074,
      "애플리케이션": 5075,
      "어드벤처": 5076,
      "업그레이드": 5077,
      "엔터테인먼트": 5078,
      "엘리베이터": 5079,
      "유한회사": 5080,
      "유형을": 5081,
      "이하의": 5082,
      "인지하며": 5083,
      "입출항": 5084,
      "전기전자공학": 5085,
      "침구류와": 5086,
      "컨퍼런스": 5087,
      "쿠알라룸푸르에서": 5088,
      "파이프라인": 5089,
      "함으로써": 5090,
      "infra_singapore_46364692": 5091,
      "receptionist": 5092,
      "0063107": 5093,
      "2026_25923439": 5094,
      "adminopen": 5095,
      "adidas": 5096,
      "ec581aa2e": 5097,
      "Cleaning": 5098,
      "2324554": 5099,
      "Execute": 5100,
      "lebar_46330": 5101,
      "emiratesgroup": 5102,
      "us_hotel_ext": 5103,
      "careersmarketplace": 5104,
      "86B81B1AB": 5105,
      "chloe": 5106,
      "163643": 5107,
      "manager_singapore_46344981": 5108,
      "manager_singapore_46354143": 5109,
      "_singapore_46348371": 5110,
      "122727": 5111,
      "1274987901": 5112,
      "speaking_central": 5113,
      "1357957200": 5114,
      "Computing": 5115,
      "49c449ec581aa2e": 5116,
      "frasersproperty": 5117,
      "의사결정을": 5118,
      "BrinksCareers_RoW": 5119,
      "545078": 5120,
      "6893551": 5121,
      "6892664": 5122,
      "6816142": 5123,
      "Adventure": 5124,
      "6920769": 5125,
      "6907719": 5126,
      "6927793": 5127,
      "6916072": 5128,
      "seafood_singapore": 5129,
      "Strategise": 5130,
      "시간대에는": 5131,
      "bank_singapore_46338055": 5132,
      "라이프사이클": 5133,
      "Assistant_JR69049": 5134,
      "Albert": 5135,
      "3159A200F730": 5136,
      "lead_singapore_46357923": 5137,
      "ScootExternalCareers": 5138,
      "Housekeeping_JR10000030": 5139,
      "19631444": 5140,
      "CareerNexus": 5141,
      "Database": 5142,
      "Description": 5143,
      "6887340": 5144,
      "6888305": 5145,
      "Logistics": 5146,
      "ApplicationMethods": 5147,
      "6677290": 5148,
      "66E1C3159A200F730": 5149,
      "93625173": 5150,
      "Portfolio": 5151,
      "_R0005045": 5152,
      "apac_singapore_46498498": 5153,
      "management_singapore_46352851": 5154,
      "1353495800": 5155,
      "1352834600": 5156,
      "1356940400": 5157,
      "Rep_JR2026492180": 5158,
      "b3e9817eb5217ce45": 5159,
      "홍보대사로서": 5160,
      "infrastructure_singapore_46352096": 5161,
      "analytics_singapore_46348371": 5162,
      "retail_paya": 5163,
      "Supervisor_JR10000048": 5164,
      "Outlook": 5165,
      "auditors_singapore_46364664": 5166,
      "0a13a2cb3e9817eb5217ce45": 5167,
      "0e6c0a13a2cb3e9817eb5217ce45": 5168,
      "2FCalcutta": 5169,
      "331A0886B81B1AB": 5170,
      "4fe589b3bcbff": 5171,
      "6807073": 5172,
      "96554170": 5173,
      "Athlete": 5174,
      "Bellboy": 5175,
      "B9510A8EF3DB66E1C3159A200F730": 5176,
      "C94B1D7B331A0886B81B1AB": 5177,
      "EXTERNAL_CAREERS": 5178,
      "Ecosystems": 5179,
      "FF8BD00C94B1D7B331A0886B81B1AB": 5180,
      "Japanese": 5181,
      "Sentosa": 5182,
      "n리셉셔니스트는": 5183,
      "lebar_46330627": 5184,
      "emiratesgroupcareers": 5185,
      "49c449ec581aa2e4fe589b3bcbff": 5186,
      "0e6c0a13a2cb3e9817eb5217ce4565d7": 5187,
      "B9510A8EF3DB66E1C3159A200F730F04": 5188,
      "FF8BD00C94B1D7B331A0886B81B1AB09": 5189,
      "49c449ec581aa2e4fe589b3bcbfffb93": 5190,
      "#,": 5191,
      "%)": 5192,
      "(“": 5193,
      ").": 5194,
      ").\\": 5195,
      "0cm": 5196,
      "1차": 5197,
      "158": 5198,
      "1개월": 5199,
      "2외": 5200,
      "2회": 5201,
      "212": 5202,
      "2개월": 5203,
      "365": 5204,
      "5cm": 5205,
      "5kg": 5206,
      "6cm": 5207,
      "6학년": 5208,
      "AE": 5209,
      "An": 5210,
      "ARe": 5211,
      "Bro": 5212,
      "Bas": 5213,
      "Bice": 5214,
      "BTM": 5215,
      "CS": 5216,
      "CU": 5217,
      "Cs": 5218,
      "Cy": 5219,
      "C등": 5220,
      "Cap": 5221,
      "Cent": 5222,
      "Cri": 5223,
      "Card": 5224,
      "CAT": 5225,
      "DA": 5226,
      "Dry": 5227,
      "DND": 5228,
      "ET": 5229,
      "EY": 5230,
      "El": 5231,
      "Em": 5232,
      "Edit": 5233,
      "FS": 5234,
      "Fair": 5235,
      "Firm": 5236,
      "GH": 5237,
      "Git": 5238,
      "HK": 5239,
      "L2": 5240,
      "Leg": 5241,
      "Lear": 5242,
      "LQA": 5243,
      "LSOP": 5244,
      "My": 5245,
      "Mer": 5246,
      "Mul": 5247,
      "Mem": 5248,
      "Mech": 5249,
      "Mav": 5250,
      "Mong": 5251,
      "Mid": 5252,
      "Mware": 5253,
      "Nit": 5254,
      "NAT": 5255,
      "Nau": 5256,
      "NET": 5257,
      "Oct": 5258,
      "Other": 5259,
      "P6": 5260,
      "Pa": 5261,
      "Per": 5262,
      "Pac": 5263,
      "Pri": 5264,
      "Qub": 5265,
      "Sw": 5266,
      "Son": 5267,
      "Seg": 5268,
      "Sch": 5269,
      "SCA": 5270,
      "TF": 5271,
      "Ty": 5272,
      "Ter": 5273,
      "Tel": 5274,
      "Tro": 5275,
      "Tru": 5276,
      "Tong": 5277,
      "TTF": 5278,
      "UAE": 5279,
      "Vis": 5280,
      "VTM": 5281,
      "VMware": 5282,
      "Win": 5283,
      "bers": 5284,
      "border": 5285,
      "ck": 5286,
      "cer": 5287,
      "cal": 5288,
      "cult": 5289,
      "dg": 5290,
      "ding": 5291,
      "del": 5292,
      "dar": 5293,
      "dist": 5294,
      "dow": 5295,
      "ee": 5296,
      "ecom": 5297,
      "eScript": 5298,
      "fi": 5299,
      "fant": 5300,
      "gre": 5301,
      "gul": 5302,
      "her": 5303,
      "hoot": 5304,
      "ift": 5305,
      "kage": 5306,
      "lang": 5307,
      "ming": 5308,
      "mps": 5309,
      "mit": 5310,
      "no": 5311,
      "n그": 5312,
      "n단": 5313,
      "n물": 5314,
      "n본": 5315,
      "n새": 5316,
      "n신": 5317,
      "n약": 5318,
      "n자": 5319,
      "n지": 5320,
      "n짧": 5321,
      "n프": 5322,
      "ning": 5323,
      "n업무": 5324,
      "nce": 5325,
      "n제공": 5326,
      "n직무": 5327,
      "n산업": 5328,
      "n품질": 5329,
      "n글로벌": 5330,
      "n부서": 5331,
      "n직원": 5332,
      "n항상": 5333,
      "n성과": 5334,
      "n멤버": 5335,
      "n재무": 5336,
      "n컴퓨터": 5337,
      "n기본": 5338,
      "n변화": 5339,
      "n위생": 5340,
      "n조직": 5341,
      "n상황": 5342,
      "n시설": 5343,
      "n어떤": 5344,
      "n지정된": 5345,
      "n레스토랑": 5346,
      "n욕실": 5347,
      "n주말": 5348,
      "n여러분": 5349,
      "n감사": 5350,
      "n창고": 5351,
      "n탁월한": 5352,
      "n강한": 5353,
      "n건물": 5354,
      "n보건": 5355,
      "n보조": 5356,
      "n신장": 5357,
      "n엑셀": 5358,
      "n정확성을": 5359,
      "n동료들과": 5360,
      "n구두": 5361,
      "n장시간": 5362,
      "n마이크로소프트": 5363,
      "n고가치": 5364,
      "n관찰": 5365,
      "n메뉴": 5366,
      "n손실": 5367,
      "n승객의": 5368,
      "n출금": 5369,
      "n하루": 5370,
      "n직원의": 5371,
      "n독립적으로": 5372,
      "n추가로": 5373,
      "nND": 5374,
      "n남성": 5375,
      "n사업": 5376,
      "n수표": 5377,
      "n야간": 5378,
      "n여성": 5379,
      "n입고된": 5380,
      "n혼잡": 5381,
      "n전문성을": 5382,
      "n안전하고": 5383,
      "n적극적이고": 5384,
      "n효과적인": 5385,
      "n1차": 5386,
      "nNAT": 5387,
      "op": 5388,
      "oy": 5389,
      "oDB": 5390,
      "pare": 5391,
      "peScript": 5392,
      "sent": 5393,
      "sac": 5394,
      "site": 5395,
      "t그": 5396,
      "t단": 5397,
      "t마": 5398,
      "t소": 5399,
      "t인": 5400,
      "t중": 5401,
      "t처": 5402,
      "t칵": 5403,
      "t팀": 5404,
      "t근무": 5405,
      "t지역": 5406,
      "t업체": 5407,
      "t부서": 5408,
      "t책임": 5409,
      "t기타": 5410,
      "t고객에게": 5411,
      "t팀과": 5412,
      "t교대": 5413,
      "t요청": 5414,
      "t방문객": 5415,
      "t국제": 5416,
      "t가능한": 5417,
      "t식품": 5418,
      "t높은": 5419,
      "t로비": 5420,
      "t유지보수": 5421,
      "t개인": 5422,
      "t일상": 5423,
      "t공간": 5424,
      "t법적": 5425,
      "t경영진": 5426,
      "t기본적인": 5427,
      "t레스토랑": 5428,
      "t위워크": 5429,
      "t현지": 5430,
      "t화학": 5431,
      "t커뮤니티": 5432,
      "t창고": 5433,
      "tGCE": 5434,
      "t건물": 5435,
      "t일일": 5436,
      "t팀의": 5437,
      "t깨끗하고": 5438,
      "t계산": 5439,
      "t시티": 5440,
      "t음식": 5441,
      "t지시": 5442,
      "t장비를": 5443,
      "t테이블": 5444,
      "t위워크의": 5445,
      "tHigh": 5446,
      "tSOP": 5447,
      "t대면": 5448,
      "t복도": 5449,
      "t아파트": 5450,
      "t외주": 5451,
      "t우편": 5452,
      "t하루": 5453,
      "t환대와": 5454,
      "t입주민": 5455,
      "t투숙객": 5456,
      "tud": 5457,
      "t신체": 5458,
      "t언제": 5459,
      "t오전": 5460,
      "t항공기": 5461,
      "t적극적이고": 5462,
      "tSPM": 5463,
      "t분실물": 5464,
      "t정직성": 5465,
      "uage": 5466,
      "ural": 5467,
      "xti": 5468,
      "⸻\\": 5469,
      "가는": 5470,
      "가입": 5471,
      "가리지": 5472,
      "각적인": 5473,
      "간식": 5474,
      "감수": 5475,
      "감을": 5476,
      "갑니다": 5477,
      "개별": 5478,
      "건을": 5479,
      "걸을": 5480,
      "게의": 5481,
      "게이션": 5482,
      "격히": 5483,
      "견적": 5484,
      "결함": 5485,
      "겸비": 5486,
      "경사": 5487,
      "경청": 5488,
      "계합니다": 5489,
      "고난": 5490,
      "고라": 5491,
      "고려": 5492,
      "고르": 5493,
      "고를": 5494,
      "고성": 5495,
      "고속": 5496,
      "고장": 5497,
      "공연": 5498,
      "관광": 5499,
      "관이": 5500,
      "관행": 5501,
      "관적인": 5502,
      "교류": 5503,
      "교적으로": 5504,
      "구성": 5505,
      "국한": 5506,
      "권의": 5507,
      "규에": 5508,
      "그들": 5509,
      "그렇": 5510,
      "그만": 5511,
      "그들의": 5512,
      "근로": 5513,
      "근면": 5514,
      "글씨": 5515,
      "금지": 5516,
      "급을": 5517,
      "급하고": 5518,
      "기구": 5519,
      "기꺼": 5520,
      "기내": 5521,
      "기다": 5522,
      "기와": 5523,
      "기울": 5524,
      "기종": 5525,
      "기한": 5526,
      "기법을": 5527,
      "긴밀": 5528,
      "깁니다": 5529,
      "까치": 5530,
      "꿇거나": 5531,
      "끊임": 5532,
      "낍니다": 5533,
      "납장": 5534,
      "내릴": 5535,
      "내비": 5536,
      "내선": 5537,
      "냄새": 5538,
      "넘는": 5539,
      "녕하세요": 5540,
      "노력": 5541,
      "노출": 5542,
      "뉴질": 5543,
      "느낄": 5544,
      "느낍니다": 5545,
      "다리": 5546,
      "다린": 5547,
      "닥에서": 5548,
      "단합니다": 5549,
      "단력과": 5550,
      "달성을": 5551,
      "당기기": 5552,
      "닿아": 5553,
      "대나": 5554,
      "대를": 5555,
      "대처": 5556,
      "대됩니다": 5557,
      "더합니다": 5558,
      "도모": 5559,
      "도움": 5560,
      "독점": 5561,
      "돕는": 5562,
      "동적인": 5563,
      "동하는지": 5564,
      "동력이": 5565,
      "되셨": 5566,
      "되어": 5567,
      "되지": 5568,
      "되거나": 5569,
      "되는지": 5570,
      "두면서": 5571,
      "드백": 5572,
      "든지": 5573,
      "등록": 5574,
      "따를": 5575,
      "라는": 5576,
      "람을": 5577,
      "람회": 5578,
      "랍니다": 5579,
      "랍에미": 5580,
      "랑스": 5581,
      "래로": 5582,
      "랭탕": 5583,
      "러닝": 5584,
      "러운": 5585,
      "려움": 5586,
      "려하기": 5587,
      "력하고": 5588,
      "력하여": 5589,
      "련되며": 5590,
      "루밍": 5591,
      "륭한": 5592,
      "르기": 5593,
      "리가": 5594,
      "리에": 5595,
      "린터": 5596,
      "립니다": 5597,
      "릿을": 5598,
      "만다린": 5599,
      "맞춰": 5600,
      "머리": 5601,
      "머천": 5602,
      "메모": 5603,
      "명단": 5604,
      "명서": 5605,
      "명세": 5606,
      "명소": 5607,
      "모색": 5608,
      "모품": 5609,
      "모국어": 5610,
      "몸소": 5611,
      "무단": 5612,
      "무게의": 5613,
      "묶어": 5614,
      "물체": 5615,
      "물량을": 5616,
      "물건을": 5617,
      "뮬레이션": 5618,
      "미를": 5619,
      "미리": 5620,
      "미세": 5621,
      "미션": 5622,
      "미치": 5623,
      "미완료": 5624,
      "민권": 5625,
      "바에": 5626,
      "바닥에서": 5627,
      "바랍니다": 5628,
      "박람회": 5629,
      "반영": 5630,
      "받아": 5631,
      "발렛": 5632,
      "발로": 5633,
      "발송": 5634,
      "발급하고": 5635,
      "밝은": 5636,
      "방식": 5637,
      "방침": 5638,
      "방해": 5639,
      "배부": 5640,
      "백오브": 5641,
      "버리": 5642,
      "범위": 5643,
      "법과": 5644,
      "법규에": 5645,
      "벽지": 5646,
      "별하고": 5647,
      "병원": 5648,
      "보상": 5649,
      "보람을": 5650,
      "복지": 5651,
      "부문": 5652,
      "부상": 5653,
      "부족": 5654,
      "부합": 5655,
      "부적절한": 5656,
      "분위": 5657,
      "분하고": 5658,
      "분위기": 5659,
      "붕대나": 5660,
      "브스": 5661,
      "비용": 5662,
      "비행": 5663,
      "뻗기": 5664,
      "뻗는": 5665,
      "사다리": 5666,
      "상을": 5667,
      "상의": 5668,
      "상주": 5669,
      "상적으로": 5670,
      "생이": 5671,
      "서는": 5672,
      "서를": 5673,
      "서비": 5674,
      "선제": 5675,
      "선택": 5676,
      "선별하고": 5677,
      "섰을": 5678,
      "성취": 5679,
      "성하는": 5680,
      "세팅": 5681,
      "세련되며": 5682,
      "센토": 5683,
      "소를": 5684,
      "소셜": 5685,
      "소음": 5686,
      "소화": 5687,
      "속성": 5688,
      "속은": 5689,
      "속에서": 5690,
      "속도의": 5691,
      "손이": 5692,
      "쇼핑": 5693,
      "수량": 5694,
      "수하": 5695,
      "수하는": 5696,
      "수량을": 5697,
      "수납장": 5698,
      "수리가": 5699,
      "숙이": 5700,
      "숙함": 5701,
      "숙하고": 5702,
      "슈를": 5703,
      "스터": 5704,
      "스톡": 5705,
      "스테이션": 5706,
      "스러운": 5707,
      "습하고": 5708,
      "승진": 5709,
      "시연": 5710,
      "시작": 5711,
      "시트": 5712,
      "시하고": 5713,
      "시뮬레이션": 5714,
      "시민권": 5715,
      "신적인": 5716,
      "실시하고": 5717,
      "심스러운": 5718,
      "쌓은": 5719,
      "아노": 5720,
      "아코": 5721,
      "아하는": 5722,
      "아고라": 5723,
      "아랍에미": 5724,
      "아래로": 5725,
      "안녕하세요": 5726,
      "않습니다": 5727,
      "약속은": 5728,
      "양해": 5729,
      "양호": 5730,
      "어려움": 5731,
      "얻게": 5732,
      "얻고": 5733,
      "얻으": 5734,
      "얼라이언스": 5735,
      "엄격히": 5736,
      "없습니다": 5737,
      "없어야": 5738,
      "없는지": 5739,
      "역동적인": 5740,
      "연스럽게": 5741,
      "열의": 5742,
      "영아": 5743,
      "영향": 5744,
      "예절": 5745,
      "오니": 5746,
      "오르기": 5747,
      "올릴": 5748,
      "올바른": 5749,
      "완성하는": 5750,
      "외교적으로": 5751,
      "요소를": 5752,
      "용모": 5753,
      "우려": 5754,
      "우체": 5755,
      "운동": 5756,
      "워지": 5757,
      "원을": 5758,
      "원의": 5759,
      "원동력이": 5760,
      "월간": 5761,
      "월별": 5762,
      "위나": 5763,
      "위협": 5764,
      "유효": 5765,
      "음악": 5766,
      "음용": 5767,
      "음식을": 5768,
      "응력이": 5769,
      "의자": 5770,
      "의학": 5771,
      "의미를": 5772,
      "의심스러운": 5773,
      "이고": 5774,
      "이내": 5775,
      "이스": 5776,
      "이정": 5777,
      "이행": 5778,
      "이후": 5779,
      "이스트": 5780,
      "이내에": 5781,
      "이름을": 5782,
      "이라는": 5783,
      "이슈를": 5784,
      "이오니": 5785,
      "익숙하고": 5786,
      "인간": 5787,
      "인원": 5788,
      "인계합니다": 5789,
      "인상을": 5790,
      "일에서": 5791,
      "일하며": 5792,
      "일요일": 5793,
      "일로부터": 5794,
      "임과": 5795,
      "입력하고": 5796,
      "있게": 5797,
      "있다": 5798,
      "자는": 5799,
      "자율": 5800,
      "자주": 5801,
      "자로서": 5802,
      "작은": 5803,
      "작할": 5804,
      "작동하는지": 5805,
      "잡고": 5806,
      "장으로": 5807,
      "장려하기": 5808,
      "재된": 5809,
      "재활용": 5810,
      "재보험사": 5811,
      "재세팅": 5812,
      "저녁": 5813,
      "적합": 5814,
      "적시에": 5815,
      "적재된": 5816,
      "전선": 5817,
      "전송": 5818,
      "전표를": 5819,
      "점수": 5820,
      "접속": 5821,
      "접촉": 5822,
      "접할": 5823,
      "정문": 5824,
      "정성": 5825,
      "정시에": 5826,
      "정상적으로": 5827,
      "제약": 5828,
      "제2외": 5829,
      "조립": 5830,
      "조에": 5831,
      "조합": 5832,
      "조화": 5833,
      "조회": 5834,
      "조작할": 5835,
      "종료": 5836,
      "종속성": 5837,
      "좋아하는": 5838,
      "중국어": 5839,
      "즉각적인": 5840,
      "즐깁니다": 5841,
      "증명서": 5842,
      "지도": 5843,
      "지에": 5844,
      "지향": 5845,
      "지시하는": 5846,
      "지급을": 5847,
      "직장": 5848,
      "직관적인": 5849,
      "진취": 5850,
      "진정한": 5851,
      "진정성": 5852,
      "질서": 5853,
      "징계": 5854,
      "쪼그리": 5855,
      "차고": 5856,
      "차단합니다": 5857,
      "차분하고": 5858,
      "차원의": 5859,
      "착용": 5860,
      "찰력": 5861,
      "채워지": 5862,
      "책을": 5863,
      "책정": 5864,
      "첫인상을": 5865,
      "초과": 5866,
      "초대됩니다": 5867,
      "최대": 5868,
      "최상의": 5869,
      "최전선": 5870,
      "축하": 5871,
      "출고": 5872,
      "출력하여": 5873,
      "취업": 5874,
      "취급자": 5875,
      "친숙함": 5876,
      "카펫": 5877,
      "캐셔": 5878,
      "커버리": 5879,
      "케이터": 5880,
      "코스트": 5881,
      "쿠션": 5882,
      "크기와": 5883,
      "큼의": 5884,
      "키를": 5885,
      "키카드": 5886,
      "키지도": 5887,
      "킨들": 5888,
      "킵니다": 5889,
      "타고난": 5890,
      "타임과": 5891,
      "탄탄": 5892,
      "템플": 5893,
      "토크": 5894,
      "토요일": 5895,
      "통과": 5896,
      "통보드": 5897,
      "통찰력": 5898,
      "퇴근": 5899,
      "투어": 5900,
      "튜드": 5901,
      "트랙": 5902,
      "트레이": 5903,
      "티켓": 5904,
      "팀리드": 5905,
      "판단력과": 5906,
      "패스트": 5907,
      "패키지도": 5908,
      "페어": 5909,
      "편성": 5910,
      "포브스": 5911,
      "품격": 5912,
      "품을": 5913,
      "프랭탕": 5914,
      "프린터": 5915,
      "플레이": 5916,
      "피드백": 5917,
      "피아노": 5918,
      "필기구": 5919,
      "하므로": 5920,
      "하거나": 5921,
      "하면서": 5922,
      "학습하고": 5923,
      "한해": 5924,
      "할인": 5925,
      "합니": 5926,
      "해고를": 5927,
      "헌신적인": 5928,
      "현실": 5929,
      "협응력이": 5930,
      "화된": 5931,
      "화하고": 5932,
      "화장으로": 5933,
      "회수하는": 5934,
      "회원을": 5935,
      "후방": 5936,
      "훌륭한": 5937,
      "🇸🇬": 5938,
      "👟✨": 5939,
      "ination": 5940,
      "anical": 5941,
      "ansac": 5942,
      "requis": 5943,
      "rence": 5944,
      "정보에": 5945,
      "정보의": 5946,
      "ingual": 5947,
      "ene": 5948,
      "확인한": 5949,
      "확인해": 5950,
      "확인하여": 5951,
      "ster": 5952,
      "stgre": 5953,
      "tient": 5954,
      "titud": 5955,
      "자격을": 5956,
      "요건에": 5957,
      "ondar": 5958,
      "연락한": 5959,
      "업무에서": 5960,
      "andis": 5961,
      "관리에": 5962,
      "관리팀": 5963,
      "관리팀과": 5964,
      "alist": 5965,
      "alif": 5966,
      ".\\...": 5967,
      "ora": 5968,
      "경력의": 5969,
      "준비가": 5970,
      "준비를": 5971,
      "준비합니다": 5972,
      "회사의": 5973,
      "icate": 5974,
      "icial": 5975,
      "기술을": 5976,
      "포지션은": 5977,
      "지원할": 5978,
      "지원함으로써": 5979,
      "지원일로부터": 5980,
      "지원합니": 5981,
      "eld": 5982,
      "에서의": 5983,
      "고객이": 5984,
      "경험의": 5985,
      "....": 5986,
      "하고자": 5987,
      "ility": 5988,
      "ilding": 5989,
      "ectr": 5990,
      "arQub": 5991,
      "채용하며": 5992,
      "필수입니다": 5993,
      "설명합니다": 5994,
      "설명하고": 5995,
      "설명하며": 5996,
      "문서화하고": 5997,
      "충족자": 5998,
      "충족하며": 5999,
      "충족되도록": 6000,
      "충족하도록": 6001,
      "제출합니다": 6002,
      "ulations": 6003,
      "ites": 6004,
      "비스터": 6005,
      "서비스가": 6006,
      "서비스로": 6007,
      "학력과": 6008,
      "학력은": 6009,
      "tegr": 6010,
      "temps": 6011,
      "정리를": 6012,
      "정리합니다": 6013,
      "정리하는": 6014,
      "정리하고": 6015,
      "정리정돈되며": 6016,
      "acle": 6017,
      "acher": 6018,
      "싱가포르에": 6019,
      "운영과": 6020,
      "운영의": 6021,
      "운영합니다": 6022,
      "운영하는": 6023,
      "Exchang": 6024,
      "근무하는": 6025,
      "근무조에": 6026,
      "Infant": 6027,
      "Integr": 6028,
      "유지와": 6029,
      "유지합": 6030,
      "유지해야": 6031,
      "유지하며": 6032,
      "유지하기": 6033,
      "유지하면서": 6034,
      "rial": 6035,
      "제공이": 6036,
      "제공하기": 6037,
      "제공됩니다": 6038,
      "제공하도록": 6039,
      "객실의": 6040,
      "객실이": 6041,
      "수행과": 6042,
      "수행에": 6043,
      "수행을": 6044,
      "수행해야": 6045,
      "수행하며": 6046,
      "수행하여": 6047,
      "ool": 6048,
      "Provision": 6049,
      "있는지": 6050,
      "10파운드": 6051,
      "지식과": 6052,
      "가능해야": 6053,
      "가능하도록": 6054,
      "데이터베": 6055,
      "plier": 6056,
      "ploy": 6057,
      "전문적이며": 6058,
      "전문가이": 6059,
      "chandis": 6060,
      "기준과": 6061,
      "기준뿐만": 6062,
      "160cm": 6063,
      "165cm": 6064,
      "ability": 6065,
      "ecurity": 6066,
      "안전을": 6067,
      "안전한": 6068,
      "안전하며": 6069,
      "안전규정": 6070,
      "준수하는": 6071,
      "준수하도록": 6072,
      "준수하는지": 6073,
      "함께하세요": 6074,
      "12학년": 6075,
      "역할에": 6076,
      "역할의": 6077,
      "역할로서": 6078,
      "trail": 6079,
      "감독할": 6080,
      "음료를": 6081,
      "Regulations": 6082,
      "교육에": 6083,
      "교육하고": 6084,
      "교육과정": 6085,
      "교육받을": 6086,
      "매장에": 6087,
      "소통합니다": 6088,
      "소통에서": 6089,
      "소통하며": 6090,
      "mary": 6091,
      "이해를": 6092,
      "이해하여": 6093,
      "처리된": 6094,
      "처리할": 6095,
      "보안팀과": 6096,
      "지역에": 6097,
      "지역에서": 6098,
      "직무를": 6099,
      "담당합": 6100,
      "담당하며": 6101,
      "담당하므로": 6102,
      "영어에": 6103,
      "HRIS": 6104,
      "공급품": 6105,
      "포함해": 6106,
      "Directory": 6107,
      "Technolo": 6108,
      "Confe": 6109,
      "보고하고": 6110,
      "보고하며": 6111,
      "보고하여": 6112,
      "식음료를": 6113,
      "원활히": 6114,
      "청소의": 6115,
      "테일을": 6116,
      "협력합니다": 6117,
      "협력하는": 6118,
      "환경을": 6119,
      "프로젝트에": 6120,
      "리테일에": 6121,
      "리테일의": 6122,
      "재고실": 6123,
      "재고조사를": 6124,
      "Compress": 6125,
      "Texti": 6126,
      "Teacher": 6127,
      "qualif": 6128,
      "장비가": 6129,
      "장비에": 6130,
      "업체가": 6131,
      "위해서는": 6132,
      "지니고": 6133,
      "지니며": 6134,
      "Space": 6135,
      "Speaking": 6136,
      "설계를": 6137,
      "승무원은": 6138,
      "청결과": 6139,
      "프로세스를": 6140,
      "비즈니스를": 6141,
      "갖추게": 6142,
      "갖추어야": 6143,
      "대응을": 6144,
      "대응할": 6145,
      "대응하며": 6146,
      "상태에": 6147,
      "상태와": 6148,
      "상태에서": 6149,
      "부서로": 6150,
      "부서의": 6151,
      "의사소통이": 6152,
      "의사소통하고": 6153,
      "의사소통하며": 6154,
      "65m": 6155,
      "요구에": 6156,
      "요구와": 6157,
      "요구하는": 6158,
      "요구됩니다": 6159,
      "정확한": 6160,
      "정확하고": 6161,
      "직원을": 6162,
      "직원에게": 6163,
      "직원들에게": 6164,
      "참여하고": 6165,
      "고객에게만": 6166,
      "22kg": 6167,
      "Advis": 6168,
      "minal": 6169,
      "기록할": 6170,
      "정책을": 6171,
      "졸업생이": 6172,
      "팀과의": 6173,
      "Teamwork": 6174,
      "cm까지": 6175,
      "뛰어넘는": 6176,
      "성과와": 6177,
      "요청이": 6178,
      "응대하고": 6179,
      "응대하며": 6180,
      "응대하여": 6181,
      "응대받을": 6182,
      "endar": 6183,
      "공급업체와": 6184,
      "JavaScript": 6185,
      "시간과": 6186,
      "전반을": 6187,
      "전반적": 6188,
      "효율적이며": 6189,
      "20명": 6190,
      "58m": 6191,
      "Agora": 6192,
      "Appare": 6193,
      "역량이": 6194,
      "판매합니다": 6195,
      "판매되는지": 6196,
      "평가를": 6197,
      "해결을": 6198,
      "해결되었는지": 6199,
      "해결책을": 6200,
      "린넨실": 6201,
      "일정을": 6202,
      "일정표를": 6203,
      "제안과": 6204,
      "제안합니다": 6205,
      "제안하거나": 6206,
      "조율할": 6207,
      "방문객과": 6208,
      "방문객과의": 6209,
      "계획합니다": 6210,
      "계획하고": 6211,
      "사용량": 6212,
      "사용을": 6213,
      "사용이": 6214,
      "사용자": 6215,
      "사용할": 6216,
      "사용법과": 6217,
      "안내를": 6218,
      "안내하며": 6219,
      "프로그램을": 6220,
      "슈퍼바이저와": 6221,
      "슈퍼바이저에게": 6222,
      "Artif": 6223,
      "Supplier": 6224,
      "개선을": 6225,
      "개선의": 6226,
      "데스크와": 6227,
      "수준으로": 6228,
      "팀원과의": 6229,
      "팀원들에게": 6230,
      "기대를": 6231,
      "능통하며": 6232,
      "보충하고": 6233,
      "열정이": 6234,
      "적절하게": 6235,
      "정돈하고": 6236,
      "조달팀": 6237,
      "유지보수와": 6238,
      "ruiter": 6239,
      "Architecture": 6240,
      "마인드가": 6241,
      "25kg": 6242,
      "Active": 6243,
      "Accor": 6244,
      "Price": 6245,
      "leshoot": 6246,
      "t호텔의": 6247,
      "개인화된": 6248,
      "기본을": 6249,
      "기본기를": 6250,
      "상품이": 6251,
      "성장하는": 6252,
      "적극적": 6253,
      "전달을": 6254,
      "전달하는": 6255,
      "전달하고": 6256,
      "전달하며": 6257,
      "전달되도록": 6258,
      "전달되거나": 6259,
      "주도합니다": 6260,
      "주도적인": 6261,
      "모니터링하고": 6262,
      "t고객용": 6263,
      "t고객과의": 6264,
      "구축하고": 6265,
      "예측하고": 6266,
      "예측하기": 6267,
      "위생적이며": 6268,
      "작업을": 6269,
      "작업물과": 6270,
      "작업대를": 6271,
      "조직의": 6272,
      "파악합니다": 6273,
      "지원자에": 6274,
      "ATS": 6275,
      "CPCU": 6276,
      "Devices": 6277,
      "Frame": 6278,
      "Present": 6279,
      "Prerequis": 6280,
      "가치에": 6281,
      "구역을": 6282,
      "능숙합니다": 6283,
      "대인관": 6284,
      "배송된": 6285,
      "비품이": 6286,
      "비품으로": 6287,
      "상황에서도": 6288,
      "상황이나": 6289,
      "센터와": 6290,
      "수요를": 6291,
      "완료하고": 6292,
      "위험을": 6293,
      "인사합니다": 6294,
      "집중력을": 6295,
      "플랫폼을": 6296,
      "확보하고": 6297,
      "요구사항에": 6298,
      "경영진을": 6299,
      "경영진이": 6300,
      "Recruiter": 6301,
      "n고객과": 6302,
      "n고객에": 6303,
      "보이는": 6304,
      "사무용품": 6305,
      "세탁물을": 6306,
      "소지품을": 6307,
      "이동을": 6308,
      "이동할": 6309,
      "전화를": 6310,
      "향상에": 6311,
      "향상을": 6312,
      "활용하게": 6313,
      "Local": 6314,
      "Quality": 6315,
      "n하우스키핑과": 6316,
      "n하우스키핑에": 6317,
      "검토합니다": 6318,
      "게스트가": 6319,
      "대상이며": 6320,
      "무결성을": 6321,
      "문화적": 6322,
      "문화권의": 6323,
      "상급자가": 6324,
      "소개하며": 6325,
      "수거하여": 6326,
      "예정이오니": 6327,
      "위워크가": 6328,
      "유니폼과": 6329,
      "유니폼을": 6330,
      "유니폼의": 6331,
      "제거하기": 6332,
      "창구로서": 6333,
      "케어에": 6334,
      "회의에": 6335,
      "관리자가": 6336,
      "관리자를": 6337,
      "ordination": 6338,
      "커뮤니티의": 6339,
      "Administrative": 6340,
      "자동화에서": 6341,
      "n팀원들의": 6342,
      "맞춤형으로": 6343,
      "맞춤형이고": 6344,
      "Programming": 6345,
      "Budg": 6346,
      "Building": 6347,
      "Stud": 6348,
      "n객실을": 6349,
      "t멤버와": 6350,
      "t멤버의": 6351,
      "t멤버에게": 6352,
      "깨끗한": 6353,
      "동료를": 6354,
      "따뜻하게": 6355,
      "말레이시": 6356,
      "물품은": 6357,
      "물품의": 6358,
      "우리의": 6359,
      "중요하게": 6360,
      "합격자는": 6361,
      "책임감과": 6362,
      "소지자이며": 6363,
      "n로비에서": 6364,
      "n지원자를": 6365,
      "ubleshoot": 6366,
      "공동의": 6367,
      "기관에서": 6368,
      "기능에": 6369,
      "다이징": 6370,
      "발굴합니다": 6371,
      "보조를": 6372,
      "보호를": 6373,
      "보호하고": 6374,
      "보호하며": 6375,
      "서류가": 6376,
      "실천하는": 6377,
      "의류를": 6378,
      "이메일로": 6379,
      "일원이": 6380,
      "자재를": 6381,
      "진행을": 6382,
      "진행하고": 6383,
      "진행되는": 6384,
      "추적합니다": 6385,
      "충분한": 6386,
      "협의합니다": 6387,
      "이상이며": 6388,
      "매장에서의": 6389,
      "이해관계자와의": 6390,
      "Printemps": 6391,
      "Scootitud": 6392,
      "스쿠티튜드": 6393,
      "Downs": 6394,
      "Grocer": 6395,
      "Postgre": 6396,
      "Secondar": 6397,
      "t비상구": 6398,
      "교사를": 6399,
      "긴급대응": 6400,
      "대표합니다": 6401,
      "대표하는": 6402,
      "만족을": 6403,
      "만족스럽게": 6404,
      "맞이하고": 6405,
      "명확한": 6406,
      "보관과": 6407,
      "보관합니다": 6408,
      "보관되도록": 6409,
      "스페이스": 6410,
      "식별하고": 6411,
      "신뢰성": 6412,
      "신뢰성과": 6413,
      "신뢰성을": 6414,
      "쓰기에": 6415,
      "아웃팅": 6416,
      "운반합니다": 6417,
      "운반하고": 6418,
      "운반하며": 6419,
      "응답하고": 6420,
      "응답하며": 6421,
      "의견과": 6422,
      "의지가": 6423,
      "자신이": 6424,
      "정중한": 6425,
      "정중하고": 6426,
      "조성에": 6427,
      "조치가": 6428,
      "조치합니다": 6429,
      "특별하고": 6430,
      "팬트리로": 6431,
      "편안함과": 6432,
      "폐기합니다": 6433,
      "폐기물을": 6434,
      "협업을": 6435,
      "형성하고": 6436,
      "형성함으로써": 6437,
      "홍보하고": 6438,
      "체크인되었는지": 6439,
      "담당자의": 6440,
      "Accounting": 6441,
      "테이블로": 6442,
      "테이블에": 6443,
      "156cm": 6444,
      "50파운드": 6445,
      "Cost": 6446,
      "Coordination": 6447,
      "Calendar": 6448,
      "Crocs": 6449,
      "Course": 6450,
      "Cashiering": 6451,
      "Hygi": 6452,
      "Oracle": 6453,
      "Outsourcing": 6454,
      "Seafood": 6455,
      "Transac": 6456,
      "WHS": 6457,
      "cumentation": 6458,
      "n비자": 6459,
      "t브랜드를": 6460,
      "감각의": 6461,
      "기밀성을": 6462,
      "내역과": 6463,
      "내역에": 6464,
      "내역이": 6465,
      "대사관": 6466,
      "도전과": 6467,
      "도전에": 6468,
      "말하기에": 6469,
      "메뉴에": 6470,
      "배치할": 6471,
      "복도를": 6472,
      "본사를": 6473,
      "부여를": 6474,
      "부여되는": 6475,
      "분실이나": 6476,
      "상장사": 6477,
      "손실을": 6478,
      "습득하고": 6479,
      "신중하고": 6480,
      "않은지": 6481,
      "업데이트하고": 6482,
      "요일에": 6483,
      "우편실": 6484,
      "우편물과": 6485,
      "이미지": 6486,
      "이수합니다": 6487,
      "인가용": 6488,
      "인터넷": 6489,
      "일관성": 6490,
      "자료가": 6491,
      "저희와": 6492,
      "적용됩니다": 6493,
      "접근할": 6494,
      "정기적으로": 6495,
      "정직성을": 6496,
      "출입자": 6497,
      "카페를": 6498,
      "통제를": 6499,
      "편의용품": 6500,
      "하루의": 6501,
      "합류하여": 6502,
      "행사에서": 6503,
      "허가증": 6504,
      "onics": 6505,
      "프로토콜에": 6506,
      "Industrial": 6507,
      "Engagement": 6508,
      "162cm": 6509,
      "우선순위를": 6510,
      "Certificate": 6511,
      "Methodist": 6512,
      "이니셔티브를": 6513,
      "Dock": 6514,
      "Documentation": 6515,
      "FCII": 6516,
      "Mother": 6517,
      "Model": 6518,
      "PhD": 6519,
      "Philippines": 6520,
      "gies": 6521,
      "n회사의": 6522,
      "n경영진의": 6523,
      "n경영진이": 6524,
      "t업무상": 6525,
      "t세탁된": 6526,
      "동기부여를": 6527,
      "동선이": 6528,
      "두바이에": 6529,
      "디스커버리": 6530,
      "디스플레이": 6531,
      "만들어가는": 6532,
      "만들어갑니다": 6533,
      "모두에서": 6534,
      "무릎을": 6535,
      "반납합니다": 6536,
      "방지하기": 6537,
      "비전을": 6538,
      "비치되었는지": 6539,
      "비치되어": 6540,
      "상담을": 6541,
      "성공적으로": 6542,
      "성공하고자": 6543,
      "수시로": 6544,
      "쓰레기": 6545,
      "쓰레기를": 6546,
      "언제든지": 6547,
      "업셀링을": 6548,
      "업셀링합니다": 6549,
      "여기고": 6550,
      "여기에": 6551,
      "이용을": 6552,
      "이용하는": 6553,
      "장소로": 6554,
      "적응하고": 6555,
      "적응하며": 6556,
      "정신적으로": 6557,
      "제자리에": 6558,
      "조언하고": 6559,
      "존중하고": 6560,
      "존중이라는": 6561,
      "주인의식": 6562,
      "주인의식을": 6563,
      "지침을": 6564,
      "추구하는": 6565,
      "추구하며": 6566,
      "카트를": 6567,
      "택배의": 6568,
      "혜택과": 6569,
      "활기차고": 6570,
      "tilus": 6571,
      "tilingual": 6572,
      "뛰어나고": 6573,
      "뛰어나며": 6574,
      "향상시킬": 6575,
      "향상시킵니다": 6576,
      "일원으로도": 6577,
      "만족도를": 6578,
      "t타인을": 6579,
      "t타인과의": 6580,
      "신중함을": 6581,
      "편의시설이": 6582,
      "인텔리전스에서": 6583,
      "Generation": 6584,
      "Generalist": 6585,
      "배우고자": 6586,
      "업그레이드를": 6587,
      "158cm": 6588,
      "212cm까지": 6589,
      "Angul": 6590,
      "Brokerage": 6591,
      "Basic": 6592,
      "Bicester": 6593,
      "BTMS": 6594,
      "Cybers": 6595,
      "C등급": 6596,
      "Capability": 6597,
      "Center": 6598,
      "Crisis": 6599,
      "Cards": 6600,
      "EY2": 6601,
      "Electr": 6602,
      "Employ": 6603,
      "Edited": 6604,
      "FSC": 6605,
      "Fairfi": 6606,
      "GHA": 6607,
      "GitLab": 6608,
      "Legal": 6609,
      "Learning": 6610,
      "MySQL": 6611,
      "Merchandis": 6612,
      "Multilingual": 6613,
      "Member": 6614,
      "Mechanical": 6615,
      "Maven": 6616,
      "MongoDB": 6617,
      "Nitec": 6618,
      "Nautilus": 6619,
      "Octop": 6620,
      "Patient": 6621,
      "Permit": 6622,
      "Package": 6623,
      "Primary": 6624,
      "Swift": 6625,
      "SonarQub": 6626,
      "Segmentation": 6627,
      "School": 6628,
      "SCADA": 6629,
      "TypeScript": 6630,
      "Terminal": 6631,
      "Telecom": 6632,
      "Troubleshoot": 6633,
      "Trust": 6634,
      "Tongue": 6635,
      "Visual": 6636,
      "Window": 6637,
      "cultural": 6638,
      "language": 6639,
      "n그루밍": 6640,
      "n단체": 6641,
      "n물론": 6642,
      "n새로운": 6643,
      "n신입": 6644,
      "n약관이": 6645,
      "n자연스럽게": 6646,
      "n지금": 6647,
      "n짧은": 6648,
      "n프랑스": 6649,
      "n업무에": 6650,
      "n제공되는": 6651,
      "n직무에": 6652,
      "n변화에": 6653,
      "n조직력이": 6654,
      "n레스토랑의": 6655,
      "n욕실을": 6656,
      "n여러분은": 6657,
      "n신장은": 6658,
      "n관찰력과": 6659,
      "n메뉴를": 6660,
      "n독립적으로뿐만": 6661,
      "nNDC": 6662,
      "nNATAS": 6663,
      "t단독": 6664,
      "t마스터": 6665,
      "t소모품": 6666,
      "t인근": 6667,
      "t중등학교": 6668,
      "t처음": 6669,
      "t칵테일을": 6670,
      "t업체로부터": 6671,
      "t방문객이": 6672,
      "t공간의": 6673,
      "t창고에서": 6674,
      "t건물의": 6675,
      "tHigher": 6676,
      "tSOP에": 6677,
      "t입주민의": 6678,
      "t신체적": 6679,
      "t언제나": 6680,
      "감수성을": 6681,
      "결함이": 6682,
      "겸비한": 6683,
      "경사진": 6684,
      "경청하고": 6685,
      "고려하여": 6686,
      "고르지": 6687,
      "고성능": 6688,
      "관광지에": 6689,
      "국한되지": 6690,
      "그들이": 6691,
      "그렇지": 6692,
      "그만큼의": 6693,
      "근로자로서": 6694,
      "근면성": 6695,
      "기꺼이": 6696,
      "기다립니다": 6697,
      "기울이며": 6698,
      "기종의": 6699,
      "기한에": 6700,
      "긴밀히": 6701,
      "까치발로": 6702,
      "끊임없이": 6703,
      "내비게이션": 6704,
      "내선으로": 6705,
      "노출되는": 6706,
      "뉴질랜드": 6707,
      "대처할": 6708,
      "도모합니다": 6709,
      "도움을": 6710,
      "되셨다면": 6711,
      "두면서도": 6712,
      "머천다이징": 6713,
      "명세서를": 6714,
      "명소에서의": 6715,
      "모색합니다": 6716,
      "물체를": 6717,
      "미션과": 6718,
      "미치는": 6719,
      "반영할": 6720,
      "발송합니다": 6721,
      "방식으로": 6722,
      "방침을": 6723,
      "배부하는": 6724,
      "백오브하우스": 6725,
      "부족분": 6726,
      "부합하도록": 6727,
      "분위기를": 6728,
      "비행해": 6729,
      "상주하는": 6730,
      "선제적으로": 6731,
      "선택에": 6732,
      "성취감을": 6733,
      "센토사": 6734,
      "소화기": 6735,
      "수하물을": 6736,
      "수납장을": 6737,
      "숙이기": 6738,
      "스톡룸": 6739,
      "스테이션의": 6740,
      "시연합니다": 6741,
      "시작해야": 6742,
      "시트에": 6743,
      "아코르": 6744,
      "아랍에미리트": 6745,
      "양호한": 6746,
      "얻으며": 6747,
      "열의와": 6748,
      "영향에": 6749,
      "예절을": 6750,
      "우체국": 6751,
      "유효한": 6752,
      "의학적으로": 6753,
      "이정표를": 6754,
      "이행합니다": 6755,
      "재활용을": 6756,
      "재보험사와의": 6757,
      "재세팅을": 6758,
      "적합해야": 6759,
      "제2외국어": 6760,
      "조화롭게": 6761,
      "조회할": 6762,
      "지향하는": 6763,
      "진취적이고": 6764,
      "쪼그리기": 6765,
      "채워지도록": 6766,
      "축하할": 6767,
      "케이터링": 6768,
      "탄탄한": 6769,
      "템플릿을": 6770,
      "통보드릴": 6771,
      "트레이를": 6772,
      "피드백을": 6773,
      "Exchange": 6774,
      "Integration": 6775,
      "전문가이든": 6776,
      "Technologies": 6777,
      "Conference": 6778,
      "Compressors": 6779,
      "Textile": 6780,
      "qualification": 6781,
      "Advisory": 6782,
      "졸업생이든": 6783,
      "Apparel": 6784,
      "Artificial": 6785,
      "Framework": 6786,
      "Presentations": 6787,
      "Prerequisites": 6788,
      "사무용품점": 6789,
      "Budget": 6790,
      "Studio": 6791,
      "Scootitude": 6792,
      "Grocery": 6793,
      "PostgreSQL": 6794,
      "Secondary": 6795,
      "Hygiene": 6796,
      "Transaction": 6797,
      "Docker": 6798,
      "Modeling": 6799,
      "Angular": 6800,
      "Cybersecurity": 6801,
      "Electronics": 6802,
      "Employee": 6803,
      "Fairfield": 6804,
      "Merchandising": 6805,
      "Octopus": 6806,
      "SonarQube": 6807,
      "Troubleshooting": 6808,
      "Windows": 6809
    },
    "merges": [
      [
        "i",
        "n"
      ],
      [
        "a",
        "n"
      ],
      [
        "r",
        "e"
      ],
      [
        "e",
        "r"
      ],
      [
        "0",
        "2"
      ],
      [
        "니",
        "다"
      ],
      [
        "정",
        "보"
      ],
      [
        "in",
        "g"
      ],
      [
        "0",
        "0"
      ],
      [
        "e",
        "n"
      ],
      [
        "=",
        "="
      ],
      [
        "확",
        "인"
      ],
      [
        "s",
        "t"
      ],
      [
        "W",
        "E"
      ],
      [
        "t",
        "i"
      ],
      [
        "자",
        "격"
      ],
      [
        "요",
        "건"
      ],
      [
        "2",
        "02"
      ],
      [
        "[",
        "/"
      ],
      [
        "o",
        "n"
      ],
      [
        "202",
        "6"
      ],
      [
        "a",
        "d"
      ],
      [
        "감",
        "일"
      ],
      [
        "마",
        "감일"
      ],
      [
        "a",
        "p"
      ],
      [
        "en",
        "t"
      ],
      [
        "연",
        "락"
      ],
      [
        "업",
        "무"
      ],
      [
        "연락",
        "처"
      ],
      [
        "an",
        "d"
      ],
      [
        "o",
        "re"
      ],
      [
        "정보",
        "를"
      ],
      [
        "관",
        "리"
      ],
      [
        "a",
        "l"
      ],
      [
        "ing",
        "ap"
      ],
      [
        "ingap",
        "ore"
      ],
      [
        "합",
        "니다"
      ],
      [
        "o",
        "m"
      ],
      [
        "습",
        "니다"
      ],
      [
        "S",
        "G"
      ],
      [
        "a",
        "g"
      ],
      [
        "SG",
        "D"
      ],
      [
        ".",
        "\\"
      ],
      [
        "o",
        "r"
      ],
      [
        "경",
        "력"
      ],
      [
        "준",
        "비"
      ],
      [
        "2",
        "8"
      ],
      [
        "E",
        "S"
      ],
      [
        "st",
        "ad"
      ],
      [
        "and",
        "stad"
      ],
      [
        "N",
        "S"
      ],
      [
        "c",
        "om"
      ],
      [
        "ES",
        "T"
      ],
      [
        "O",
        "N"
      ],
      [
        "o",
        "b"
      ],
      [
        "A",
        "NS"
      ],
      [
        "D",
        "O"
      ],
      [
        "I",
        "ON"
      ],
      [
        "Q",
        "U"
      ],
      [
        "력",
        "서"
      ],
      [
        "이",
        "력서"
      ],
      [
        "==",
        "="
      ],
      [
        "WE",
        "R"
      ],
      [
        "EST",
        "ION"
      ],
      [
        "ANS",
        "WER"
      ],
      [
        "DO",
        "C"
      ],
      [
        "QU",
        "ESTION"
      ],
      [
        "회",
        "사"
      ],
      [
        "S",
        "ingapore"
      ],
      [
        "•",
        "\\"
      ],
      [
        "i",
        "c"
      ],
      [
        "w",
        "w"
      ],
      [
        "기",
        "술"
      ],
      [
        "포",
        "지"
      ],
      [
        "00",
        "0"
      ],
      [
        "포지",
        "션"
      ],
      [
        "고",
        "용"
      ],
      [
        "위",
        "치"
      ],
      [
        "지",
        "원"
      ],
      [
        "형",
        "태"
      ],
      [
        "고용",
        "형태"
      ],
      [
        "e",
        "l"
      ],
      [
        "에",
        "서"
      ],
      [
        "j",
        "ob"
      ],
      [
        "t",
        "t"
      ],
      [
        "하",
        "는"
      ],
      [
        "an",
        "ag"
      ],
      [
        "고",
        "객"
      ],
      [
        "경",
        "험"
      ],
      [
        "필",
        "요"
      ],
      [
        "사",
        "항"
      ],
      [
        ".",
        "."
      ],
      [
        "p",
        "s"
      ],
      [
        "급",
        "여"
      ],
      [
        "WE",
        "B"
      ],
      [
        "e",
        "s"
      ],
      [
        "이",
        "상"
      ],
      [
        "/",
        "/"
      ],
      [
        ":",
        "//"
      ],
      [
        "h",
        "tt"
      ],
      [
        "htt",
        "ps"
      ],
      [
        "스",
        "트"
      ],
      [
        "ti",
        "on"
      ],
      [
        "있",
        "습니다"
      ],
      [
        "R",
        "andstad"
      ],
      [
        "m",
        "ent"
      ],
      [
        "하",
        "고"
      ],
      [
        "요",
        "약"
      ],
      [
        "i",
        "l"
      ],
      [
        "e",
        "c"
      ],
      [
        "이",
        "트"
      ],
      [
        "a",
        "r"
      ],
      [
        "체",
        "크"
      ],
      [
        "M",
        "anag"
      ],
      [
        "리",
        "스트"
      ],
      [
        "e",
        "t"
      ],
      [
        "주",
        "의"
      ],
      [
        "체크",
        "리스트"
      ],
      [
        "주의",
        "사항"
      ],
      [
        "a",
        "tion"
      ],
      [
        "있",
        "으"
      ],
      [
        "채",
        "용"
      ],
      [
        "구",
        "인"
      ],
      [
        "필",
        "수"
      ],
      [
        "작",
        "성"
      ],
      [
        "주",
        "요"
      ],
      [
        "설",
        "명"
      ],
      [
        "문",
        "서"
      ],
      [
        "해",
        "야"
      ],
      [
        "p",
        "er"
      ],
      [
        "사",
        "이트"
      ],
      [
        "최",
        "신"
      ],
      [
        "C",
        "l"
      ],
      [
        "m",
        "e"
      ],
      [
        "변",
        "경"
      ],
      [
        "s",
        "g"
      ],
      [
        "충",
        "족"
      ],
      [
        "므",
        "로"
      ],
      [
        "제",
        "출"
      ],
      [
        ")",
        ":"
      ],
      [
        "C",
        "V"
      ],
      [
        "u",
        "l"
      ],
      [
        "것",
        "이"
      ],
      [
        "공",
        "공"
      ],
      [
        "공",
        "식"
      ],
      [
        "담",
        "고"
      ],
      [
        "상",
        "세"
      ],
      [
        "웹",
        "사이트"
      ],
      [
        "좋",
        "습니다"
      ],
      [
        "해",
        "줘"
      ],
      [
        "정보",
        "는"
      ],
      [
        "확인",
        "하는"
      ],
      [
        "준비",
        "물"
      ],
      [
        "지원",
        "서"
      ],
      [
        "있으",
        "므로"
      ],
      [
        "문서",
        "는"
      ],
      [
        "변경",
        "될"
      ],
      [
        "공공",
        "정보"
      ],
      [
        "웹사이트",
        "에서"
      ],
      [
        "c",
        "e"
      ],
      [
        "i",
        "t"
      ],
      [
        "정",
        "규"
      ],
      [
        "ww",
        "w"
      ],
      [
        "비",
        "스"
      ],
      [
        "정규",
        "직"
      ],
      [
        "내",
        "용"
      ],
      [
        "서",
        "비스"
      ],
      [
        "여",
        "부"
      ],
      [
        "a",
        "il"
      ],
      [
        "r",
        "o"
      ],
      [
        "또",
        "는"
      ],
      [
        "업",
        "종"
      ],
      [
        "회사",
        "명"
      ],
      [
        "학",
        "력"
      ],
      [
        "ti",
        "me"
      ],
      [
        "a",
        "re"
      ],
      [
        "ul",
        "l"
      ],
      [
        "t",
        "e"
      ],
      [
        "F",
        "ull"
      ],
      [
        "정",
        "리"
      ],
      [
        "2",
        "3"
      ],
      [
        "i",
        "ent"
      ],
      [
        "Cl",
        "ient"
      ],
      [
        "A",
        "I"
      ],
      [
        "a",
        "c"
      ],
      [
        "h",
        "i"
      ],
      [
        "job",
        "s"
      ],
      [
        "능",
        "력"
      ],
      [
        "ag",
        "e"
      ],
      [
        "으",
        "로"
      ],
      [
        "..",
        "."
      ],
      [
        "시",
        "스"
      ],
      [
        "정리",
        "해줘"
      ],
      [
        "r",
        "andstad"
      ],
      [
        "0",
        "3"
      ],
      [
        "시스",
        "템"
      ],
      [
        "T",
        "E"
      ],
      [
        "o",
        "u"
      ],
      [
        "h",
        "a"
      ],
      [
        "Manag",
        "er"
      ],
      [
        "가",
        "포"
      ],
      [
        "싱",
        "가포"
      ],
      [
        "TE",
        "L"
      ],
      [
        "싱가포",
        "르"
      ],
      [
        "운",
        "영"
      ],
      [
        "E",
        "x"
      ],
      [
        "E",
        "M"
      ],
      [
        "a",
        "te"
      ],
      [
        "t",
        "h"
      ],
      [
        "근",
        "무"
      ],
      [
        "프",
        "로"
      ],
      [
        "I",
        "T"
      ],
      [
        "c",
        "are"
      ],
      [
        "관",
        "련"
      ],
      [
        "_",
        "s"
      ],
      [
        "i",
        "st"
      ],
      [
        "AI",
        "L"
      ],
      [
        "EM",
        "AIL"
      ],
      [
        "e",
        "v"
      ],
      [
        "e",
        "ment"
      ],
      [
        "전",
        "략"
      ],
      [
        "ation",
        "s"
      ],
      [
        "마",
        "케"
      ],
      [
        "마케",
        "팅"
      ],
      [
        "I",
        "n"
      ],
      [
        "M",
        "ar"
      ],
      [
        "호",
        "텔"
      ],
      [
        "an",
        "k"
      ],
      [
        "유",
        "지"
      ],
      [
        "care",
        "er"
      ],
      [
        "5",
        "년"
      ],
      [
        "k",
        "et"
      ],
      [
        "a",
        "s"
      ],
      [
        "ic",
        "ha"
      ],
      [
        "icha",
        "el"
      ],
      [
        "Manag",
        "ement"
      ],
      [
        "4",
        "6"
      ],
      [
        "c",
        "t"
      ],
      [
        "l",
        "e"
      ],
      [
        "r",
        "i"
      ],
      [
        "적",
        "인"
      ],
      [
        "e",
        "g"
      ],
      [
        "제",
        "공"
      ],
      [
        "ket",
        "ing"
      ],
      [
        "1",
        "1"
      ],
      [
        "hi",
        "p"
      ],
      [
        ")",
        "\\"
      ],
      [
        "객",
        "실"
      ],
      [
        "수",
        "행"
      ],
      [
        "in",
        "e"
      ],
      [
        "e",
        "m"
      ],
      [
        "g",
        "m"
      ],
      [
        "_s",
        "ingapore"
      ],
      [
        "gm",
        "ail"
      ],
      [
        "o",
        "o"
      ],
      [
        "개",
        "발"
      ],
      [
        "es",
        "s"
      ],
      [
        "en",
        "ce"
      ],
      [
        "B",
        "ank"
      ],
      [
        "i",
        "on"
      ],
      [
        "i",
        "re"
      ],
      [
        "우",
        "대"
      ],
      [
        "우",
        "스"
      ],
      [
        "P",
        "ro"
      ],
      [
        "_",
        "46"
      ],
      [
        "e",
        "ad"
      ],
      [
        "있",
        "는"
      ],
      [
        "하",
        "며"
      ],
      [
        "하",
        "우스"
      ],
      [
        "핵",
        "심"
      ],
      [
        "_46",
        "3"
      ],
      [
        "1",
        "0"
      ],
      [
        "u",
        "re"
      ],
      [
        "분",
        "석"
      ],
      [
        "이",
        "터"
      ],
      [
        "지",
        "식"
      ],
      [
        "u",
        "s"
      ],
      [
        "최",
        "소"
      ],
      [
        "업무",
        "를"
      ],
      [
        "가",
        "능"
      ],
      [
        "ic",
        "e"
      ],
      [
        "ec",
        "h"
      ],
      [
        "Mar",
        "keting"
      ],
      [
        "i",
        "ence"
      ],
      [
        "대",
        "한"
      ],
      [
        "데",
        "이터"
      ],
      [
        "하",
        "여"
      ],
      [
        "et",
        "ail"
      ],
      [
        "per",
        "ience"
      ],
      [
        "Ex",
        "perience"
      ],
      [
        "career",
        "s"
      ],
      [
        "하우스",
        "키"
      ],
      [
        "v",
        "e"
      ],
      [
        "워",
        "크"
      ],
      [
        "B",
        "ac"
      ],
      [
        "m",
        "anag"
      ],
      [
        "관",
        "계"
      ],
      [
        "Experience",
        "d"
      ],
      [
        "E",
        "n"
      ],
      [
        "p",
        "l"
      ],
      [
        "0",
        "4"
      ],
      [
        "g",
        "ine"
      ],
      [
        "h",
        "el"
      ],
      [
        "모",
        "든"
      ],
      [
        "분",
        "야"
      ],
      [
        "전",
        "문"
      ],
      [
        "ire",
        "ct"
      ],
      [
        "하우스키",
        "핑"
      ],
      [
        "Bac",
        "hel"
      ],
      [
        "gine",
        "er"
      ],
      [
        "Bachel",
        "or"
      ],
      [
        "e",
        "d"
      ],
      [
        "i",
        "or"
      ],
      [
        "o",
        "ti"
      ],
      [
        "리",
        "드"
      ],
      [
        "적",
        "으로"
      ],
      [
        "하",
        "게"
      ],
      [
        "en",
        "ior"
      ],
      [
        "8",
        "6"
      ],
      [
        "M",
        "ichael"
      ],
      [
        "P",
        "age"
      ],
      [
        "c",
        "h"
      ],
      [
        "y",
        "st"
      ],
      [
        "기",
        "준"
      ],
      [
        "irect",
        "or"
      ],
      [
        "1",
        "6"
      ],
      [
        "A",
        "P"
      ],
      [
        "a",
        "b"
      ],
      [
        "a",
        "m"
      ],
      [
        "a",
        "y"
      ],
      [
        "f",
        "f"
      ],
      [
        "i",
        "s"
      ],
      [
        "에",
        "게"
      ],
      [
        "중",
        "심"
      ],
      [
        "ev",
        "el"
      ],
      [
        "er",
        "v"
      ],
      [
        "ec",
        "u"
      ],
      [
        "manag",
        "er"
      ],
      [
        "l",
        "o"
      ],
      [
        "영",
        "업"
      ],
      [
        "in",
        "ess"
      ],
      [
        "L",
        "ead"
      ],
      [
        "u",
        "t"
      ],
      [
        "안",
        "전"
      ],
      [
        "이",
        "션"
      ],
      [
        "준",
        "수"
      ],
      [
        "_singapore",
        "_463"
      ],
      [
        "En",
        "gineer"
      ],
      [
        "리",
        "더"
      ],
      [
        "스",
        "크"
      ],
      [
        "함",
        "께"
      ],
      [
        "us",
        "iness"
      ],
      [
        "1",
        "2"
      ],
      [
        "d",
        "etail"
      ],
      [
        "f",
        "t"
      ],
      [
        "g",
        "y"
      ],
      [
        "금",
        "융"
      ],
      [
        "랜",
        "드"
      ],
      [
        "수",
        "립"
      ],
      [
        "역",
        "할"
      ],
      [
        "ou",
        "r"
      ],
      [
        "04",
        "86"
      ],
      [
        "n",
        "al"
      ],
      [
        "t",
        "r"
      ],
      [
        "감",
        "독"
      ],
      [
        "음",
        "료"
      ],
      [
        "al",
        "es"
      ],
      [
        "ic",
        "al"
      ],
      [
        "ion",
        "al"
      ],
      [
        "R",
        "eg"
      ],
      [
        "T",
        "ech"
      ],
      [
        "교",
        "육"
      ],
      [
        "매",
        "장"
      ],
      [
        "소",
        "통"
      ],
      [
        "학",
        "위"
      ],
      [
        "an",
        "t"
      ],
      [
        "re",
        "f"
      ],
      [
        "요약",
        "해줘"
      ],
      [
        "oo",
        "d"
      ],
      [
        "S",
        "ales"
      ],
      [
        "m",
        "ar"
      ],
      [
        "기",
        "업"
      ],
      [
        "보",
        "유"
      ],
      [
        "브",
        "랜드"
      ],
      [
        "이",
        "해"
      ],
      [
        "처",
        "리"
      ],
      [
        "-",
        "-"
      ],
      [
        "5",
        "00"
      ],
      [
        "m",
        "on"
      ],
      [
        "보",
        "안"
      ],
      [
        "지",
        "역"
      ],
      [
        "직",
        "무"
      ],
      [
        "하",
        "기"
      ],
      [
        "mon",
        "th"
      ],
      [
        "s",
        "p"
      ],
      [
        "담",
        "당"
      ],
      [
        "영",
        "어"
      ],
      [
        "프",
        "라"
      ],
      [
        "ti",
        "ve"
      ],
      [
        "리더",
        "십"
      ],
      [
        ")",
        ","
      ],
      [
        "고",
        "의"
      ],
      [
        "ac",
        "t"
      ],
      [
        "Bank",
        "ing"
      ],
      [
        "B",
        "usiness"
      ],
      [
        "H",
        "R"
      ],
      [
        "S",
        "enior"
      ],
      [
        "c",
        "i"
      ],
      [
        "r",
        "al"
      ],
      [
        "s",
        "s"
      ],
      [
        "공",
        "급"
      ],
      [
        "산",
        "업"
      ],
      [
        "포",
        "함"
      ],
      [
        "플",
        "로"
      ],
      [
        "per",
        "ations"
      ],
      [
        "it",
        "y"
      ],
      [
        "1",
        "3"
      ],
      [
        "8",
        "0"
      ],
      [
        "D",
        "irector"
      ],
      [
        "S",
        "erv"
      ],
      [
        "j",
        "n"
      ],
      [
        "m",
        "ichael"
      ],
      [
        "p",
        "age"
      ],
      [
        "or",
        "k"
      ],
      [
        "프로",
        "젝"
      ],
      [
        "10",
        "년"
      ],
      [
        "Tech",
        "n"
      ],
      [
        "michael",
        "page"
      ],
      [
        "C",
        "on"
      ],
      [
        "N",
        "eg"
      ],
      [
        "a",
        "v"
      ],
      [
        "c",
        "s"
      ],
      [
        "r",
        "u"
      ],
      [
        "u",
        "r"
      ],
      [
        "다",
        "면"
      ],
      [
        "따",
        "라"
      ],
      [
        "보",
        "고"
      ],
      [
        "식",
        "음료"
      ],
      [
        "원",
        "활"
      ],
      [
        "절",
        "차"
      ],
      [
        "청",
        "소"
      ],
      [
        "테",
        "일"
      ],
      [
        "협",
        "력"
      ],
      [
        "환",
        "경"
      ],
      [
        "서비스",
        "를"
      ],
      [
        "Pro",
        "c"
      ],
      [
        "프로젝",
        "트"
      ],
      [
        "Neg",
        "oti"
      ],
      [
        "0",
        "1"
      ],
      [
        "e",
        "al"
      ],
      [
        "리",
        "테일"
      ],
      [
        "뮤",
        "니"
      ],
      [
        "뱅",
        "킹"
      ],
      [
        "재",
        "고"
      ],
      [
        "커",
        "뮤니"
      ],
      [
        "학",
        "사"
      ],
      [
        "항",
        "공"
      ],
      [
        "ri",
        "v"
      ],
      [
        "yst",
        "em"
      ],
      [
        "0486",
        "23"
      ],
      [
        "eal",
        "th"
      ],
      [
        "A",
        "C"
      ],
      [
        "A",
        "nal"
      ],
      [
        "C",
        "om"
      ],
      [
        "R",
        "e"
      ],
      [
        "T",
        "e"
      ],
      [
        "a",
        "st"
      ],
      [
        "i",
        "g"
      ],
      [
        "q",
        "u"
      ],
      [
        "대",
        "졸"
      ],
      [
        "장",
        "비"
      ],
      [
        "통",
        "한"
      ],
      [
        "프",
        "레"
      ],
      [
        "ent",
        "ral"
      ],
      [
        "지원",
        "합니다"
      ],
      [
        "ations",
        "hip"
      ],
      [
        "ab",
        "le"
      ],
      [
        "Reg",
        "ional"
      ],
      [
        "1",
        "4"
      ],
      [
        "4",
        "9"
      ],
      [
        "A",
        "ss"
      ],
      [
        "R",
        "el"
      ],
      [
        "공",
        "고의"
      ],
      [
        "업",
        "체"
      ],
      [
        "위",
        "해"
      ],
      [
        "있",
        "다면"
      ],
      [
        "지",
        "니"
      ],
      [
        "품",
        "질"
      ],
      [
        "연락처",
        "가"
      ],
      [
        "ure",
        "ment"
      ],
      [
        "S",
        "p"
      ],
      [
        "f",
        "r"
      ],
      [
        "u",
        "p"
      ],
      [
        "w",
        "ork"
      ],
      [
        "니",
        "스"
      ],
      [
        "무",
        "원"
      ],
      [
        "비",
        "즈"
      ],
      [
        "설",
        "계"
      ],
      [
        "세",
        "스"
      ],
      [
        "승",
        "무원"
      ],
      [
        "의",
        "사"
      ],
      [
        "청",
        "결"
      ],
      [
        "in",
        "k"
      ],
      [
        "er",
        "n"
      ],
      [
        "ec",
        "t"
      ],
      [
        "프로",
        "세스"
      ],
      [
        "AP",
        "AC"
      ],
      [
        "비즈",
        "니스"
      ],
      [
        "B",
        "r"
      ],
      [
        "p",
        "ing"
      ],
      [
        "p",
        "or"
      ],
      [
        "갖",
        "추"
      ],
      [
        "계",
        "약"
      ],
      [
        "글",
        "로"
      ],
      [
        "대",
        "응"
      ],
      [
        "도",
        "록"
      ],
      [
        "상",
        "태"
      ],
      [
        "어",
        "야"
      ],
      [
        "엔",
        "지니"
      ],
      [
        "협",
        "상"
      ],
      [
        "202",
        "5"
      ],
      [
        "연락처",
        "와"
      ],
      [
        "주의사항",
        "을"
      ],
      [
        "evel",
        "o"
      ],
      [
        "ecu",
        "tive"
      ],
      [
        "Lead",
        "er"
      ],
      [
        "Negoti",
        "able"
      ],
      [
        "글로",
        "벌"
      ],
      [
        "엔지니",
        "어"
      ],
      [
        "O",
        "S"
      ],
      [
        "O",
        "ff"
      ],
      [
        "O",
        "perations"
      ],
      [
        "S",
        "E"
      ],
      [
        "a",
        "i"
      ],
      [
        "a",
        "ce"
      ],
      [
        "o",
        "sp"
      ],
      [
        "목",
        "표"
      ],
      [
        "방",
        "문"
      ],
      [
        "보",
        "험"
      ],
      [
        "부",
        "서"
      ],
      [
        "책",
        "임"
      ],
      [
        "케",
        "이션"
      ],
      [
        "태",
        "도"
      ],
      [
        "자격",
        "증"
      ],
      [
        "ist",
        "ant"
      ],
      [
        "유지",
        "합니다"
      ],
      [
        "제공",
        "합니다"
      ],
      [
        "의사",
        "소통"
      ],
      [
        "5",
        "4"
      ],
      [
        "6",
        "5"
      ],
      [
        "6",
        "8"
      ],
      [
        "7",
        "년"
      ],
      [
        "C",
        "I"
      ],
      [
        "S",
        "ystem"
      ],
      [
        "m",
        "y"
      ],
      [
        "o",
        "lo"
      ],
      [
        "p",
        "ment"
      ],
      [
        "u",
        "m"
      ],
      [
        "기",
        "타"
      ],
      [
        "시",
        "장"
      ],
      [
        "업",
        "계"
      ],
      [
        "요",
        "구"
      ],
      [
        "의",
        "료"
      ],
      [
        "정",
        "확"
      ],
      [
        "제",
        "조"
      ],
      [
        "직",
        "원"
      ],
      [
        "참",
        "여"
      ],
      [
        "프",
        "트"
      ],
      [
        "항",
        "상"
      ],
      [
        "고객",
        "에게"
      ],
      [
        "체크리스트",
        "와"
      ],
      [
        "수행",
        "합니다"
      ],
      [
        "중심",
        "으로"
      ],
      [
        "our",
        "ce"
      ],
      [
        "갖추",
        "고"
      ],
      [
        "2",
        "2"
      ],
      [
        ":",
        "\\"
      ],
      [
        "A",
        "d"
      ],
      [
        "F",
        "ood"
      ],
      [
        "S",
        "hip"
      ],
      [
        "i",
        "al"
      ],
      [
        "m",
        "in"
      ],
      [
        "s",
        "i"
      ],
      [
        "s",
        "hip"
      ],
      [
        "u",
        "n"
      ],
      [
        "경",
        "영"
      ],
      [
        "기",
        "록"
      ],
      [
        "신",
        "속"
      ],
      [
        "실",
        "행"
      ],
      [
        "인",
        "프라"
      ],
      [
        "정",
        "책"
      ],
      [
        "제",
        "품"
      ],
      [
        "졸",
        "업"
      ],
      [
        "팀",
        "과"
      ],
      [
        "커뮤니",
        "케이션"
      ],
      [
        "Te",
        "am"
      ],
      [
        "ink",
        "ed"
      ],
      [
        "olo",
        "gy"
      ],
      [
        "6",
        "9"
      ],
      [
        "D",
        "evelo"
      ],
      [
        "J",
        "av"
      ],
      [
        "S",
        "tr"
      ],
      [
        "c",
        "m"
      ],
      [
        "o",
        "ft"
      ],
      [
        "s",
        "e"
      ],
      [
        "교",
        "대"
      ],
      [
        "기",
        "기"
      ],
      [
        "네",
        "트"
      ],
      [
        "디",
        "플로"
      ],
      [
        "뛰",
        "어"
      ],
      [
        "루",
        "션"
      ],
      [
        "리",
        "스크"
      ],
      [
        "바",
        "이"
      ],
      [
        "복",
        "잡"
      ],
      [
        "성",
        "과"
      ],
      [
        "소",
        "프트"
      ],
      [
        "솔",
        "루션"
      ],
      [
        "시",
        "에"
      ],
      [
        "요",
        "청"
      ],
      [
        "응",
        "대"
      ],
      [
        "있",
        "어야"
      ],
      [
        "자",
        "산"
      ],
      [
        "조",
        "정"
      ],
      [
        "re",
        "g"
      ],
      [
        "er",
        "age"
      ],
      [
        "en",
        "d"
      ],
      [
        "ic",
        "ation"
      ],
      [
        "고객",
        "을"
      ],
      [
        "ec",
        "ial"
      ],
      [
        "ou",
        "d"
      ],
      [
        "pl",
        "y"
      ],
      [
        "공급",
        "업체"
      ],
      [
        "포함",
        "한"
      ],
      [
        "환경",
        "에서"
      ],
      [
        "riv",
        "ate"
      ],
      [
        "SE",
        "A"
      ],
      [
        "Jav",
        "a"
      ],
      [
        "Str",
        "ate"
      ],
      [
        "네트",
        "워크"
      ],
      [
        "디플로",
        "마"
      ],
      [
        "복잡",
        "한"
      ],
      [
        "ecial",
        "ist"
      ],
      [
        "C",
        "entral"
      ],
      [
        "L",
        "inked"
      ],
      [
        "M",
        "ed"
      ],
      [
        "P",
        "l"
      ],
      [
        "f",
        "act"
      ],
      [
        "강",
        "력"
      ],
      [
        "다",
        "양"
      ],
      [
        "로",
        "서"
      ],
      [
        "시",
        "간"
      ],
      [
        "어",
        "지"
      ],
      [
        "은",
        "행"
      ],
      [
        "전",
        "반"
      ],
      [
        "효",
        "율"
      ],
      [
        "an",
        "ce"
      ],
      [
        "관리",
        "합니다"
      ],
      [
        "or",
        "por"
      ],
      [
        "Serv",
        "ice"
      ],
      [
        "Techn",
        "ology"
      ],
      [
        "협력",
        "하여"
      ],
      [
        "Com",
        "m"
      ],
      [
        "Rel",
        "ationship"
      ],
      [
        "Linked",
        "In"
      ],
      [
        "강력",
        "한"
      ],
      [
        "다양",
        "한"
      ],
      [
        "orpor",
        "ate"
      ],
      [
        "2",
        "0"
      ],
      [
        "3",
        "년"
      ],
      [
        "5",
        "8"
      ],
      [
        "A",
        "g"
      ],
      [
        "A",
        "p"
      ],
      [
        "C",
        "re"
      ],
      [
        "J",
        "ob"
      ],
      [
        "R",
        "es"
      ],
      [
        "b",
        "ank"
      ],
      [
        "d",
        "ay"
      ],
      [
        "l",
        "er"
      ],
      [
        "w",
        "d"
      ],
      [
        "긍",
        "정"
      ],
      [
        "라",
        "이"
      ],
      [
        "론",
        "트"
      ],
      [
        "베",
        "이"
      ],
      [
        "숙",
        "박"
      ],
      [
        "역",
        "량"
      ],
      [
        "외",
        "식"
      ],
      [
        "지",
        "정"
      ],
      [
        "판",
        "매"
      ],
      [
        "평",
        "가"
      ],
      [
        "프",
        "론트"
      ],
      [
        "해",
        "결"
      ],
      [
        "on",
        "t"
      ],
      [
        "and",
        "ler"
      ],
      [
        "고객",
        "의"
      ],
      [
        "사항",
        "을"
      ],
      [
        "있으",
        "며"
      ],
      [
        "Ex",
        "ecutive"
      ],
      [
        "프로",
        "그"
      ],
      [
        "ut",
        "m"
      ],
      [
        "역할",
        "을"
      ],
      [
        "mar",
        "keting"
      ],
      [
        "절차",
        "를"
      ],
      [
        "Proc",
        "urement"
      ],
      [
        "work",
        "day"
      ],
      [
        "my",
        "workday"
      ],
      [
        "Ad",
        "min"
      ],
      [
        "myworkday",
        "jobs"
      ],
      [
        "1",
        "년"
      ],
      [
        "C",
        "orporate"
      ],
      [
        "E",
        "R"
      ],
      [
        "S",
        "Q"
      ],
      [
        "h",
        "o"
      ],
      [
        "k",
        "e"
      ],
      [
        "t",
        "el"
      ],
      [
        "u",
        "st"
      ],
      [
        "다",
        "음"
      ],
      [
        "레",
        "이"
      ],
      [
        "린",
        "넨"
      ],
      [
        "멤",
        "버"
      ],
      [
        "문",
        "의"
      ],
      [
        "문",
        "제"
      ],
      [
        "사",
        "고"
      ],
      [
        "성",
        "을"
      ],
      [
        "쉽",
        "게"
      ],
      [
        "시",
        "아"
      ],
      [
        "오",
        "피"
      ],
      [
        "우",
        "수"
      ],
      [
        "일",
        "정"
      ],
      [
        "제",
        "안"
      ],
      [
        "조",
        "율"
      ],
      [
        "주",
        "문"
      ],
      [
        "컨",
        "시"
      ],
      [
        "표",
        "준"
      ],
      [
        "an",
        "g"
      ],
      [
        "an",
        "n"
      ],
      [
        "ti",
        "es"
      ],
      [
        "ic",
        "er"
      ],
      [
        "이상",
        "의"
      ],
      [
        "it",
        "al"
      ],
      [
        "hi",
        "ft"
      ],
      [
        "능력",
        "을"
      ],
      [
        "ev",
        "erage"
      ],
      [
        "em",
        "ical"
      ],
      [
        "이해",
        "하기"
      ],
      [
        "Ass",
        "istant"
      ],
      [
        "엔지니어",
        "링"
      ],
      [
        "방문",
        "객"
      ],
      [
        "의료",
        "기기"
      ],
      [
        "뛰어",
        "난"
      ],
      [
        "오피",
        "스"
      ],
      [
        "2",
        "B"
      ],
      [
        "7",
        "8"
      ],
      [
        "7",
        "9"
      ],
      [
        "8",
        "년"
      ],
      [
        "A",
        "l"
      ],
      [
        "B",
        "2B"
      ],
      [
        "C",
        "M"
      ],
      [
        "a",
        "a"
      ],
      [
        "a",
        "f"
      ],
      [
        "d",
        "irector"
      ],
      [
        "e",
        "x"
      ],
      [
        "l",
        "ob"
      ],
      [
        "p",
        "ro"
      ],
      [
        "p",
        "le"
      ],
      [
        "s",
        "ingapore"
      ],
      [
        "s",
        "enior"
      ],
      [
        "t",
        "a"
      ],
      [
        "t",
        "ech"
      ],
      [
        "v",
        "ent"
      ],
      [
        "계",
        "획"
      ],
      [
        "국",
        "제"
      ],
      [
        "규",
        "정"
      ],
      [
        "라",
        "우"
      ],
      [
        "사",
        "용"
      ],
      [
        "슈",
        "퍼"
      ],
      [
        "안",
        "내"
      ],
      [
        "웨",
        "어"
      ],
      [
        "위",
        "한"
      ],
      [
        "점",
        "검"
      ],
      [
        "총",
        "괄"
      ],
      [
        "최",
        "적"
      ],
      [
        "클",
        "라우"
      ],
      [
        "er",
        "osp"
      ],
      [
        "on",
        "g"
      ],
      [
        "Cl",
        "oud"
      ],
      [
        "it",
        "ect"
      ],
      [
        "ct",
        "ure"
      ],
      [
        "수행",
        "할"
      ],
      [
        "가능",
        "한"
      ],
      [
        "ch",
        "itect"
      ],
      [
        "준수",
        "합니다"
      ],
      [
        "ru",
        "cture"
      ],
      [
        "Anal",
        "yst"
      ],
      [
        "ast",
        "ructure"
      ],
      [
        "Sp",
        "ecialist"
      ],
      [
        "fr",
        "astructure"
      ],
      [
        "제조",
        "업"
      ],
      [
        "바이",
        "저"
      ],
      [
        "소프트",
        "웨어"
      ],
      [
        "Comm",
        "un"
      ],
      [
        "프로그",
        "램"
      ],
      [
        "SQ",
        "L"
      ],
      [
        "슈퍼",
        "바이저"
      ],
      [
        "클라우",
        "드"
      ],
      [
        "erosp",
        "ace"
      ],
      [
        "A",
        "r"
      ],
      [
        "C",
        "h"
      ],
      [
        "G",
        "as"
      ],
      [
        "H",
        "ou"
      ],
      [
        "O",
        "il"
      ],
      [
        "S",
        "up"
      ],
      [
        "b",
        "ern"
      ],
      [
        "e",
        "f"
      ],
      [
        "i",
        "d"
      ],
      [
        "t",
        "y"
      ],
      [
        "w",
        "are"
      ],
      [
        "개",
        "선"
      ],
      [
        "구",
        "현"
      ],
      [
        "던",
        "트"
      ],
      [
        "데",
        "스크"
      ],
      [
        "수",
        "준"
      ],
      [
        "스",
        "토"
      ],
      [
        "식",
        "품"
      ],
      [
        "재",
        "무"
      ],
      [
        "컴",
        "퓨"
      ],
      [
        "팀",
        "원"
      ],
      [
        "st",
        "ment"
      ],
      [
        "ob",
        "oti"
      ],
      [
        "ro",
        "l"
      ],
      [
        "Mar",
        "ine"
      ],
      [
        "ve",
        "stment"
      ],
      [
        "our",
        "c"
      ],
      [
        "원활",
        "한"
      ],
      [
        "Leader",
        "ship"
      ],
      [
        "Strate",
        "gy"
      ],
      [
        "긍정",
        "적인"
      ],
      [
        "ER",
        "P"
      ],
      [
        "컨시",
        "어지"
      ],
      [
        "Hou",
        "se"
      ],
      [
        "컴퓨",
        "터"
      ],
      [
        "oboti",
        "cs"
      ],
      [
        "1",
        "7"
      ],
      [
        "1",
        "02"
      ],
      [
        "1",
        "5년"
      ],
      [
        "2",
        "6"
      ],
      [
        "3",
        "0"
      ],
      [
        "4",
        "0"
      ],
      [
        "7",
        "1"
      ],
      [
        "8",
        "9"
      ],
      [
        "F",
        "in"
      ],
      [
        "L",
        "C"
      ],
      [
        "L",
        "a"
      ],
      [
        "P",
        "rivate"
      ],
      [
        "R",
        "etail"
      ],
      [
        "S",
        "oft"
      ],
      [
        "U",
        "S"
      ],
      [
        "b",
        "u"
      ],
      [
        "i",
        "f"
      ],
      [
        "m",
        "s"
      ],
      [
        "n",
        "호텔"
      ],
      [
        "s",
        "erv"
      ],
      [
        "w",
        "e"
      ],
      [
        "같",
        "은"
      ],
      [
        "공",
        "학"
      ],
      [
        "구",
        "매"
      ],
      [
        "기",
        "대"
      ],
      [
        "높",
        "은"
      ],
      [
        "능",
        "통"
      ],
      [
        "등",
        "학"
      ],
      [
        "디",
        "지"
      ],
      [
        "런",
        "트"
      ],
      [
        "로",
        "비"
      ],
      [
        "리",
        "오"
      ],
      [
        "리",
        "조"
      ],
      [
        "리",
        "티"
      ],
      [
        "마",
        "인"
      ],
      [
        "보",
        "수"
      ],
      [
        "보",
        "충"
      ],
      [
        "비",
        "상"
      ],
      [
        "선",
        "박"
      ],
      [
        "소",
        "시에"
      ],
      [
        "어",
        "소시에"
      ],
      [
        "열",
        "정"
      ],
      [
        "이",
        "전"
      ],
      [
        "적",
        "이"
      ],
      [
        "적",
        "절"
      ],
      [
        "정",
        "돈"
      ],
      [
        "조",
        "달"
      ],
      [
        "친",
        "절"
      ],
      [
        "트",
        "폴"
      ],
      [
        "포",
        "트폴"
      ],
      [
        "프",
        "런트"
      ],
      [
        "and",
        "s"
      ],
      [
        "ic",
        "ations"
      ],
      [
        "job",
        "_"
      ],
      [
        "tt",
        "end"
      ],
      [
        "ment",
        "s"
      ],
      [
        "ar",
        "d"
      ],
      [
        "me",
        "d"
      ],
      [
        "유지",
        "보수"
      ],
      [
        "career",
        "_"
      ],
      [
        "ire",
        "ments"
      ],
      [
        "가능",
        "자"
      ],
      [
        "데이터",
        "베이"
      ],
      [
        "기준",
        "에"
      ],
      [
        "ru",
        "it"
      ],
      [
        "보고",
        "합니다"
      ],
      [
        "Re",
        "qu"
      ],
      [
        "ai",
        "ms"
      ],
      [
        "Develo",
        "pment"
      ],
      [
        "다음",
        "과"
      ],
      [
        "lob",
        "al"
      ],
      [
        "최적",
        "화"
      ],
      [
        "Ar",
        "chitect"
      ],
      [
        "Soft",
        "ware"
      ],
      [
        "등학",
        "교"
      ],
      [
        "디지",
        "털"
      ],
      [
        "리조",
        "트"
      ],
      [
        "마인",
        "드"
      ],
      [
        "어소시에",
        "이트"
      ],
      [
        "포트폴",
        "리오"
      ],
      [
        "ttend",
        "ant"
      ],
      [
        "데이터베이",
        "스"
      ],
      [
        "Requ",
        "irements"
      ],
      [
        "0",
        "7"
      ],
      [
        "2",
        "5"
      ],
      [
        "2",
        "7"
      ],
      [
        "A",
        "c"
      ],
      [
        "B",
        "everage"
      ],
      [
        "L",
        "evel"
      ],
      [
        "M",
        "an"
      ],
      [
        "P",
        "r"
      ],
      [
        "R",
        "obotics"
      ],
      [
        "S",
        "ecu"
      ],
      [
        "W",
        "ealth"
      ],
      [
        "c",
        "le"
      ],
      [
        "d",
        "u"
      ],
      [
        "d",
        "it"
      ],
      [
        "l",
        "es"
      ],
      [
        "r",
        "ity"
      ],
      [
        "t",
        "호텔"
      ],
      [
        "u",
        "fact"
      ],
      [
        "개",
        "인"
      ],
      [
        "것",
        "을"
      ],
      [
        "고",
        "등학교"
      ],
      [
        "기",
        "본"
      ],
      [
        "니",
        "터"
      ],
      [
        "됩",
        "니다"
      ],
      [
        "들",
        "과"
      ],
      [
        "로",
        "드"
      ],
      [
        "마",
        "이"
      ],
      [
        "모",
        "니터"
      ],
      [
        "벤",
        "트"
      ],
      [
        "변",
        "화"
      ],
      [
        "분",
        "을"
      ],
      [
        "상",
        "업"
      ],
      [
        "상",
        "품"
      ],
      [
        "성",
        "장"
      ],
      [
        "신",
        "규"
      ],
      [
        "어",
        "텐"
      ],
      [
        "에",
        "이전"
      ],
      [
        "이",
        "벤트"
      ],
      [
        "일",
        "치"
      ],
      [
        "적",
        "극"
      ],
      [
        "전",
        "달"
      ],
      [
        "주",
        "도"
      ],
      [
        "테",
        "이션"
      ],
      [
        "통",
        "합"
      ],
      [
        "파",
        "트"
      ],
      [
        "or",
        "t"
      ],
      [
        "il",
        "i"
      ],
      [
        "oo",
        "t"
      ],
      [
        "lo",
        "c"
      ],
      [
        "tr",
        "act"
      ],
      [
        "ur",
        "ing"
      ],
      [
        "Proc",
        "ess"
      ],
      [
        "Anal",
        "y"
      ],
      [
        "Off",
        "icer"
      ],
      [
        "CI",
        "S"
      ],
      [
        "Ship",
        "ping"
      ],
      [
        "Pl",
        "ann"
      ],
      [
        "Cre",
        "w"
      ],
      [
        "ke",
        "e"
      ],
      [
        "House",
        "kee"
      ],
      [
        "ruit",
        "ment"
      ],
      [
        "Man",
        "ufact"
      ],
      [
        "모니터",
        "링"
      ],
      [
        "어텐",
        "던트"
      ],
      [
        "에이전",
        "트"
      ],
      [
        "Manufact",
        "uring"
      ],
      [
        "1",
        "80"
      ],
      [
        "2",
        "9"
      ],
      [
        "3",
        "1"
      ],
      [
        "4",
        "5"
      ],
      [
        "5",
        "2"
      ],
      [
        "5",
        "5"
      ],
      [
        "6",
        "3"
      ],
      [
        "A",
        "erospace"
      ],
      [
        "A",
        "ttendant"
      ],
      [
        "G",
        "B"
      ],
      [
        "H",
        "ead"
      ],
      [
        "J",
        "R"
      ],
      [
        "L",
        "t"
      ],
      [
        "O",
        "B"
      ],
      [
        "P",
        "te"
      ],
      [
        "P",
        "LC"
      ],
      [
        "R",
        "M"
      ],
      [
        "R",
        "i"
      ],
      [
        "S",
        "CM"
      ],
      [
        "W",
        "e"
      ],
      [
        "_",
        "JR"
      ],
      [
        "a",
        "h"
      ],
      [
        "a",
        "ff"
      ],
      [
        "b",
        "o"
      ],
      [
        "f",
        "or"
      ],
      [
        "g",
        "r"
      ],
      [
        "o",
        "w"
      ],
      [
        "p",
        "an"
      ],
      [
        "s",
        "ource"
      ],
      [
        "t",
        "er"
      ],
      [
        "t",
        "고객"
      ],
      [
        "t",
        "하우스키핑"
      ],
      [
        "t",
        "ern"
      ],
      [
        "u",
        "e"
      ],
      [
        "v",
        "er"
      ],
      [
        "v",
        "is"
      ],
      [
        "거",
        "래"
      ],
      [
        "구",
        "축"
      ],
      [
        "기",
        "는"
      ],
      [
        "나",
        "이"
      ],
      [
        "대",
        "해"
      ],
      [
        "레",
        "벨"
      ],
      [
        "서",
        "버"
      ],
      [
        "스",
        "피"
      ],
      [
        "아",
        "키"
      ],
      [
        "아",
        "시아"
      ],
      [
        "여",
        "러"
      ],
      [
        "여",
        "행"
      ],
      [
        "예",
        "산"
      ],
      [
        "예",
        "측"
      ],
      [
        "우",
        "주"
      ],
      [
        "위",
        "생"
      ],
      [
        "일",
        "상"
      ],
      [
        "임",
        "워크"
      ],
      [
        "작",
        "업"
      ],
      [
        "접",
        "수"
      ],
      [
        "조",
        "직"
      ],
      [
        "즐",
        "기는"
      ],
      [
        "지",
        "속"
      ],
      [
        "찾",
        "고"
      ],
      [
        "출",
        "장"
      ],
      [
        "캠",
        "페"
      ],
      [
        "콘",
        "텐"
      ],
      [
        "탈",
        "리티"
      ],
      [
        "텍",
        "처"
      ],
      [
        "통",
        "해"
      ],
      [
        "파",
        "악"
      ],
      [
        "호",
        "스피"
      ],
      [
        "효",
        "과"
      ],
      [
        "확인",
        "합니다"
      ],
      [
        "ic",
        "es"
      ],
      [
        "지원",
        "자"
      ],
      [
        "ation",
        "al"
      ],
      [
        "hi",
        "ef"
      ],
      [
        "운영",
        "을"
      ],
      [
        "_s",
        "ource"
      ],
      [
        "In",
        "frastructure"
      ],
      [
        "as",
        "hi"
      ],
      [
        "le",
        "ad"
      ],
      [
        "11",
        "7"
      ],
      [
        "11",
        "11"
      ],
      [
        "11",
        "2025"
      ],
      [
        "분야",
        "의"
      ],
      [
        "ut",
        "om"
      ],
      [
        "_singapore_463",
        "54"
      ],
      [
        "0486",
        "16"
      ],
      [
        "--",
        "-"
      ],
      [
        "프라",
        "이"
      ],
      [
        "Techn",
        "ical"
      ],
      [
        "원활",
        "하게"
      ],
      [
        "항공",
        "우주"
      ],
      [
        "프레",
        "임워크"
      ],
      [
        "Off",
        "ice"
      ],
      [
        "reg",
        "ional"
      ],
      [
        "bank",
        "ing"
      ],
      [
        "utm",
        "_source"
      ],
      [
        "aa",
        "S"
      ],
      [
        "수준",
        "의"
      ],
      [
        "Lt",
        "d"
      ],
      [
        "Ri",
        "ver"
      ],
      [
        "aff",
        "les"
      ],
      [
        "pan",
        "y"
      ],
      [
        "ter",
        "nal"
      ],
      [
        "tern",
        "ational"
      ],
      [
        "나이",
        "키"
      ],
      [
        "아키",
        "텍처"
      ],
      [
        "캠페",
        "인"
      ],
      [
        "콘텐",
        "츠"
      ],
      [
        "호스피",
        "탈리티"
      ],
      [
        "A",
        "T"
      ],
      [
        "C",
        "G"
      ],
      [
        "C",
        "P"
      ],
      [
        "C",
        "ust"
      ],
      [
        "D",
        "ev"
      ],
      [
        "F",
        "M"
      ],
      [
        "F",
        "r"
      ],
      [
        "H",
        "ealth"
      ],
      [
        "P",
        "re"
      ],
      [
        "R",
        "is"
      ],
      [
        "R",
        "OS"
      ],
      [
        "S",
        "c"
      ],
      [
        "S",
        "hift"
      ],
      [
        "T",
        "M"
      ],
      [
        "j",
        "ect"
      ],
      [
        "k",
        "ing"
      ],
      [
        "n",
        "모든"
      ],
      [
        "o",
        "f"
      ],
      [
        "u",
        "al"
      ],
      [
        "가",
        "격"
      ],
      [
        "가",
        "치"
      ],
      [
        "거",
        "나"
      ],
      [
        "공",
        "간"
      ],
      [
        "공",
        "휴"
      ],
      [
        "구",
        "역"
      ],
      [
        "기",
        "회"
      ],
      [
        "기",
        "획"
      ],
      [
        "는",
        "지"
      ],
      [
        "능",
        "숙"
      ],
      [
        "대",
        "인"
      ],
      [
        "도",
        "체"
      ],
      [
        "랫",
        "폼"
      ],
      [
        "련",
        "도"
      ],
      [
        "반",
        "도체"
      ],
      [
        "배",
        "송"
      ],
      [
        "법",
        "적"
      ],
      [
        "불",
        "일치"
      ],
      [
        "비",
        "품"
      ],
      [
        "상",
        "황"
      ],
      [
        "센",
        "터"
      ],
      [
        "수",
        "요"
      ],
      [
        "숙",
        "련도"
      ],
      [
        "스",
        "택"
      ],
      [
        "신",
        "용"
      ],
      [
        "완",
        "료"
      ],
      [
        "외",
        "부"
      ],
      [
        "위",
        "험"
      ],
      [
        "인",
        "사"
      ],
      [
        "자",
        "동"
      ],
      [
        "조",
        "사"
      ],
      [
        "집",
        "중"
      ],
      [
        "테",
        "이"
      ],
      [
        "테",
        "스트"
      ],
      [
        "플",
        "랫폼"
      ],
      [
        "확",
        "보"
      ],
      [
        "an",
        "ci"
      ],
      [
        "ti",
        "cs"
      ],
      [
        "om",
        "er"
      ],
      [
        "or",
        "s"
      ],
      [
        "경험",
        "을"
      ],
      [
        "서비스",
        "업"
      ],
      [
        "근무",
        "할"
      ],
      [
        "전략",
        "적"
      ],
      [
        "In",
        "vestment"
      ],
      [
        "as",
        "d"
      ],
      [
        "전문",
        "성"
      ],
      [
        "Con",
        "tract"
      ],
      [
        "Br",
        "and"
      ],
      [
        "상태",
        "를"
      ],
      [
        "태도",
        "를"
      ],
      [
        "요구",
        "사항"
      ],
      [
        "경영",
        "진"
      ],
      [
        "신속",
        "하고"
      ],
      [
        "우수",
        "한"
      ],
      [
        "Ch",
        "emical"
      ],
      [
        "Sup",
        "ply"
      ],
      [
        "du",
        "ct"
      ],
      [
        "로드",
        "맵"
      ],
      [
        "Housekee",
        "ping"
      ],
      [
        "Cust",
        "omer"
      ],
      [
        "FM",
        "CG"
      ],
      [
        "Ris",
        "k"
      ],
      [
        "공휴",
        "일"
      ],
      [
        "anci",
        "al"
      ],
      [
        "-",
        "%"
      ],
      [
        "/",
        "?"
      ],
      [
        "0",
        "8"
      ],
      [
        "1",
        "9"
      ],
      [
        "1",
        "00"
      ],
      [
        "2",
        "00"
      ],
      [
        "2",
        "40"
      ],
      [
        "4",
        "49"
      ],
      [
        "5",
        "9"
      ],
      [
        "5",
        "79"
      ],
      [
        "6",
        "4"
      ],
      [
        "7",
        "c"
      ],
      [
        "8",
        "00"
      ],
      [
        "9",
        "1"
      ],
      [
        "A",
        "b"
      ],
      [
        "A",
        "utom"
      ],
      [
        "C",
        "are"
      ],
      [
        "C",
        "RM"
      ],
      [
        "C",
        "hief"
      ],
      [
        "D",
        "a"
      ],
      [
        "D",
        "es"
      ],
      [
        "M",
        "ES"
      ],
      [
        "P",
        "y"
      ],
      [
        "R",
        "ec"
      ],
      [
        "R",
        "affles"
      ],
      [
        "S",
        "AP"
      ],
      [
        "b",
        "usiness"
      ],
      [
        "b",
        "ili"
      ],
      [
        "c",
        "l"
      ],
      [
        "c",
        "entral"
      ],
      [
        "c",
        "urement"
      ],
      [
        "f",
        "ood"
      ],
      [
        "g",
        "o"
      ],
      [
        "g",
        "lobal"
      ],
      [
        "k",
        "w"
      ],
      [
        "k",
        "it"
      ],
      [
        "l",
        "evel"
      ],
      [
        "l",
        "ationship"
      ],
      [
        "m",
        "ation"
      ],
      [
        "n",
        "i"
      ],
      [
        "n",
        "고객"
      ],
      [
        "n",
        "팀원"
      ],
      [
        "o",
        "ci"
      ],
      [
        "o",
        "perations"
      ],
      [
        "p",
        "on"
      ],
      [
        "s",
        "u"
      ],
      [
        "y",
        "it"
      ],
      [
        "격",
        "근무"
      ],
      [
        "고",
        "급"
      ],
      [
        "과",
        "목"
      ],
      [
        "규",
        "제"
      ],
      [
        "급",
        "자"
      ],
      [
        "나",
        "요"
      ],
      [
        "남",
        "아시아"
      ],
      [
        "동",
        "남아시아"
      ],
      [
        "되",
        "도록"
      ],
      [
        "레",
        "스토"
      ],
      [
        "면",
        "접"
      ],
      [
        "보",
        "이"
      ],
      [
        "보",
        "장"
      ],
      [
        "사",
        "무"
      ],
      [
        "사",
        "이"
      ],
      [
        "세",
        "탁"
      ],
      [
        "소",
        "지"
      ],
      [
        "시",
        "설"
      ],
      [
        "압",
        "박"
      ],
      [
        "어",
        "떤"
      ],
      [
        "언",
        "스"
      ],
      [
        "없",
        "음"
      ],
      [
        "에",
        "미"
      ],
      [
        "연",
        "간"
      ],
      [
        "원",
        "가"
      ],
      [
        "원",
        "격근무"
      ],
      [
        "이",
        "동"
      ],
      [
        "전",
        "화"
      ],
      [
        "젠",
        "테이션"
      ],
      [
        "철",
        "저"
      ],
      [
        "청",
        "구"
      ],
      [
        "코",
        "드"
      ],
      [
        "크",
        "로"
      ],
      [
        "투",
        "자"
      ],
      [
        "풀",
        "스택"
      ],
      [
        "해",
        "상"
      ],
      [
        "해",
        "석"
      ],
      [
        "해",
        "운"
      ],
      [
        "향",
        "상"
      ],
      [
        "현",
        "금"
      ],
      [
        "활",
        "용"
      ],
      [
        "an",
        "ch"
      ],
      [
        "re",
        "lationship"
      ],
      [
        "er",
        "s"
      ],
      [
        "er",
        "_463"
      ],
      [
        "er",
        "ah"
      ],
      [
        "en",
        "_"
      ],
      [
        "en",
        "ti"
      ],
      [
        "al",
        "e"
      ],
      [
        "or",
        "y"
      ],
      [
        "com",
        "pany"
      ],
      [
        "Cl",
        "aims"
      ],
      [
        "te",
        "am"
      ],
      [
        "시스템",
        "을"
      ],
      [
        "ou",
        "t"
      ],
      [
        "Ex",
        "ternal"
      ],
      [
        "th",
        "on"
      ],
      [
        "ist",
        "ri"
      ],
      [
        "In",
        "for"
      ],
      [
        "as",
        "s"
      ],
      [
        "중심",
        "적인"
      ],
      [
        "Reg",
        "ion"
      ],
      [
        "13",
        "0"
      ],
      [
        "Con",
        "t"
      ],
      [
        "보고",
        "서"
      ],
      [
        "riv",
        "er_463"
      ],
      [
        "ig",
        "ital"
      ],
      [
        "qu",
        "is"
      ],
      [
        "프레",
        "젠테이션"
      ],
      [
        "68",
        "8"
      ],
      [
        "si",
        "a"
      ],
      [
        "si",
        "bili"
      ],
      [
        "reg",
        "ion"
      ],
      [
        "Med",
        "tech"
      ],
      [
        "Ap",
        "ple"
      ],
      [
        "Res",
        "pon"
      ],
      [
        "라이",
        "언스"
      ],
      [
        "지정",
        "된"
      ],
      [
        "pro",
        "curement"
      ],
      [
        "Commun",
        "ications"
      ],
      [
        "ourc",
        "ing"
      ],
      [
        "bu",
        "tion"
      ],
      [
        "serv",
        "ice"
      ],
      [
        "we",
        "i"
      ],
      [
        "친절",
        "하고"
      ],
      [
        "Secu",
        "rity"
      ],
      [
        "기본",
        "적인"
      ],
      [
        "파트",
        "너"
      ],
      [
        "Plann",
        "ing"
      ],
      [
        "프라이",
        "빗"
      ],
      [
        "Fr",
        "ont"
      ],
      [
        "대인",
        "관계"
      ],
      [
        "Ab",
        "out"
      ],
      [
        "Py",
        "thon"
      ],
      [
        "kw",
        "an"
      ],
      [
        "oci",
        "ate"
      ],
      [
        "yit",
        "wei"
      ],
      [
        "레스토",
        "랑"
      ],
      [
        "istri",
        "bution"
      ],
      [
        "Infor",
        "mation"
      ],
      [
        "sibili",
        "ties"
      ],
      [
        "Respon",
        "sibilities"
      ],
      [
        "1",
        "8"
      ],
      [
        "2",
        "년"
      ],
      [
        "A",
        "S"
      ],
      [
        "B",
        "I"
      ],
      [
        "C",
        "D"
      ],
      [
        "D",
        "i"
      ],
      [
        "K",
        "u"
      ],
      [
        "L",
        "o"
      ],
      [
        "P",
        "ay"
      ],
      [
        "P",
        "OS"
      ],
      [
        "Q",
        "ual"
      ],
      [
        "S",
        "ing"
      ],
      [
        "a",
        "u"
      ],
      [
        "g",
        "ist"
      ],
      [
        "i",
        "er"
      ],
      [
        "i",
        "tion"
      ],
      [
        "l",
        "ig"
      ],
      [
        "n",
        "s"
      ],
      [
        "n",
        "하우스키핑"
      ],
      [
        "p",
        "h"
      ],
      [
        "r",
        "ing"
      ],
      [
        "s",
        "ur"
      ],
      [
        "t",
        "객실"
      ],
      [
        "t",
        "모든"
      ],
      [
        "가",
        "지"
      ],
      [
        "검",
        "토"
      ],
      [
        "게",
        "스트"
      ],
      [
        "공",
        "유"
      ],
      [
        "과",
        "정"
      ],
      [
        "니",
        "폼"
      ],
      [
        "대",
        "상"
      ],
      [
        "되",
        "었"
      ],
      [
        "레",
        "이트"
      ],
      [
        "리",
        "지"
      ],
      [
        "맞",
        "춤"
      ],
      [
        "매",
        "니"
      ],
      [
        "무",
        "결"
      ],
      [
        "무",
        "관"
      ],
      [
        "문",
        "화"
      ],
      [
        "벤",
        "더"
      ],
      [
        "보",
        "딩"
      ],
      [
        "사",
        "람"
      ],
      [
        "상",
        "급자"
      ],
      [
        "소",
        "개"
      ],
      [
        "수",
        "거"
      ],
      [
        "숙",
        "지"
      ],
      [
        "스",
        "쿠"
      ],
      [
        "시",
        "하는"
      ],
      [
        "언",
        "어"
      ],
      [
        "예",
        "정"
      ],
      [
        "온",
        "보딩"
      ],
      [
        "욕",
        "실"
      ],
      [
        "위",
        "워크"
      ],
      [
        "유",
        "통"
      ],
      [
        "유",
        "니폼"
      ],
      [
        "이",
        "에"
      ],
      [
        "일",
        "반"
      ],
      [
        "입",
        "니다"
      ],
      [
        "전",
        "체"
      ],
      [
        "제",
        "거"
      ],
      [
        "주",
        "말"
      ],
      [
        "즉",
        "시"
      ],
      [
        "지",
        "닌"
      ],
      [
        "창",
        "구"
      ],
      [
        "초",
        "대졸"
      ],
      [
        "컴",
        "플"
      ],
      [
        "케",
        "어"
      ],
      [
        "해",
        "외"
      ],
      [
        "행",
        "정"
      ],
      [
        "현",
        "지"
      ],
      [
        "화",
        "학"
      ],
      [
        "환",
        "영"
      ],
      [
        "회",
        "의"
      ],
      [
        "요건",
        "을"
      ],
      [
        "관리",
        "자"
      ],
      [
        "om",
        "a"
      ],
      [
        "or",
        "d"
      ],
      [
        "경력",
        "이"
      ],
      [
        "지원",
        "을"
      ],
      [
        "에서",
        "도"
      ],
      [
        "사항",
        "에"
      ],
      [
        "il",
        "l"
      ],
      [
        "et",
        "es"
      ],
      [
        "per",
        "ty"
      ],
      [
        "it",
        "e"
      ],
      [
        "ha",
        "in"
      ],
      [
        "ist",
        "r"
      ],
      [
        "유지",
        "하고"
      ],
      [
        "제공",
        "할"
      ],
      [
        "em",
        "and"
      ],
      [
        "Pro",
        "gr"
      ],
      [
        "Pro",
        "ject"
      ],
      [
        "Pro",
        "duct"
      ],
      [
        "관계",
        "자"
      ],
      [
        "pl",
        "ication"
      ],
      [
        "pl",
        "oma"
      ],
      [
        "분야",
        "에서"
      ],
      [
        "Engineer",
        "ing"
      ],
      [
        "보유",
        "자"
      ],
      [
        "보유",
        "하고"
      ],
      [
        "처리",
        "합니다"
      ],
      [
        "커뮤니",
        "티"
      ],
      [
        "Rel",
        "ations"
      ],
      [
        "Sp",
        "ring"
      ],
      [
        "osp",
        "ital"
      ],
      [
        "정책",
        "과"
      ],
      [
        "Med",
        "ical"
      ],
      [
        "효율",
        "적으로"
      ],
      [
        "Ap",
        "plication"
      ],
      [
        "Admin",
        "istr"
      ],
      [
        "tel",
        "lig"
      ],
      [
        "vent",
        "ory"
      ],
      [
        "bern",
        "etes"
      ],
      [
        "rol",
        "l"
      ],
      [
        "Fin",
        "ancial"
      ],
      [
        "적이",
        "고"
      ],
      [
        "Analy",
        "tics"
      ],
      [
        "여러",
        "분"
      ],
      [
        "자동",
        "화"
      ],
      [
        "공휴일",
        "을"
      ],
      [
        "n팀원",
        "들"
      ],
      [
        "에미",
        "레이트"
      ],
      [
        "quis",
        "ition"
      ],
      [
        "Di",
        "ploma"
      ],
      [
        "Ku",
        "bernetes"
      ],
      [
        "sur",
        "ance"
      ],
      [
        "가지",
        "고"
      ],
      [
        "되었",
        "는지"
      ],
      [
        "맞춤",
        "형"
      ],
      [
        "컴플",
        "라이언스"
      ],
      [
        "Progr",
        "am"
      ],
      [
        "ospital",
        "ity"
      ],
      [
        "tellig",
        "ence"
      ],
      [
        "6",
        "6"
      ],
      [
        "6",
        "26"
      ],
      [
        "8",
        "80"
      ],
      [
        "9",
        "3"
      ],
      [
        "?",
        ")\\"
      ],
      [
        "A",
        "V"
      ],
      [
        "A",
        "z"
      ],
      [
        "A",
        "re"
      ],
      [
        "B",
        "u"
      ],
      [
        "B",
        "ar"
      ],
      [
        "B",
        "oot"
      ],
      [
        "C",
        "H"
      ],
      [
        "C",
        "ab"
      ],
      [
        "D",
        "igital"
      ],
      [
        "D",
        "istribution"
      ],
      [
        "H",
        "i"
      ],
      [
        "H",
        "andler"
      ],
      [
        "I",
        "N"
      ],
      [
        "J",
        "OB"
      ],
      [
        "K",
        "af"
      ],
      [
        "M",
        "ic"
      ],
      [
        "M",
        "AS"
      ],
      [
        "O",
        "P"
      ],
      [
        "P",
        "ort"
      ],
      [
        "R",
        "CH"
      ],
      [
        "S",
        "A"
      ],
      [
        "S",
        "h"
      ],
      [
        "S",
        "t"
      ],
      [
        "S",
        "NS"
      ],
      [
        "W",
        "ha"
      ],
      [
        "_",
        "R"
      ],
      [
        "_",
        "SEA"
      ],
      [
        "_",
        "id"
      ],
      [
        "_",
        "med"
      ],
      [
        "_",
        "loc"
      ],
      [
        "_",
        "central"
      ],
      [
        "b",
        "r"
      ],
      [
        "c",
        "c"
      ],
      [
        "c",
        "y"
      ],
      [
        "c",
        "ou"
      ],
[...]
